<pad>
[URL]
[MASK]
▁t
he
▁a
in
▁the
er
on
re
▁o
ed
nd
▁s
▁w
at
or
is
en
it
▁of
▁c
an
ar
es
al
▁in
▁f
▁b
▁p
as
▁and
ing
ic
ro
▁to
ion
▁m
le
▁d
▁h
ou
▁T
▁S
ent
il
▁A
▁re
▁C
▁1
st
om
el
am
▁l
ol
ct
▁n
▁e
▁th
▁was
ad
▁M
▁"
▁I
▁The
ur
▁B
et
iv
ly
▁for
ch
▁on
ation
id
▁is
▁H
im
ce
ig
ir
us
ot
▁g
▁P
▁as
ut
▁be
ow
ers
ith
ra
la
▁2
▁st
▁(
▁with
ter
her
▁R
un
▁19
▁D
em
▁F
ver
ul
▁L
▁by
▁W
▁al
▁wh
▁G
th
ist
▁N
▁an
▁con
os
rom
ay
▁that
▁at
ge
um
▁he
▁E
▁20
▁J
est
ri
▁In
op
▁it
▁from
▁v
▁pro
▁de
▁com
od
▁O
ain
▁se
ity
av
pe
oc
and
up
▁or
▁his
res
ate
art
if
ac
ies
ud
▁are
ort
ich
ew
ab
ere
ber
ld
se
ore
igh
all
qu
ard
ated
▁U
ill
ian
ak
▁r
▁were
▁K
▁ex
ess
ub
ant
ive
▁ch
ip
ag
ment
▁St
ap
gh
ial
ia
ear
nt
▁which
ame
ong
ov
und
ast
ary
red
our
ost
▁le
ction
ell
▁200
ine
ord
so
ther
▁sh
▁y
▁Ch
▁He
uc
ical
ust
ish
▁inc
▁had
▁k
ight
▁V
▁un
▁not
te
▁comp
▁also
ran
og
ous
▁us
mer
ome
pt
ave
▁has
ork
ue
ure
irst
ie
ff
▁whe
▁201
▁pla
ition
per
",
port
ign
iz
fter
ry
ass
▁first
▁cont
▁It
▁its
ide
ok
▁18
own
ire
▁ar
erv
▁their
rit
ater
▁Th
▁ad
wo
▁ro
▁part
ount
▁int
ric
▁but
age
▁ap
ally
▁res
),
ond
▁te
hed
ect
00
▁who
lud
▁year
ult
▁Un
ice
man
ens
ime
ould
▁have
ations
▁one
cc
ree
▁cl
▁ab
wn
out
low
ence
ack
land
▁man
▁3
▁per
".
ru
▁bec
▁this
ach
ugh
).
▁includ
ang
ib
over
▁j
fer
ark
ound
▁other
are
▁rec
amp
▁two
old
ates
▁her
uring
▁ag
▁been
ile
▁Al
uch
ke
ool
ions
ade
act
ory
▁play
ely
ng
▁en
ne
ational
les
▁199
tern
ck
▁dis
for
▁Y
▁im
▁Re
ited
ents
▁after
ces
ild
oin
vel
ased
▁comm
ite
▁sp
ubl
▁sc
▁out
one
we
▁over
▁up
ors
▁ne
ph
ough
able
ied
ose
▁they
ts
ted
▁work
▁new
▁all
▁ra
ress
chool
ons
▁can
▁into
aw
▁Se
ug
ail
▁4
▁des
ember
urn
ced
▁As
▁form
▁und
ind
oy
orn
ase
▁off
pl
▁ev
▁De
iss
ance
▁spe
rough
▁time
▁pre
ood
▁Ar
hip
▁loc
▁under
▁more
ath
gan
▁tra
▁serv
▁gro
ings
ob
▁him
▁Mar
ans
way
ward
▁New
▁when
▁years
ivers
inal
▁bet
▁would
▁kn
▁ind
ious
▁198
▁pl
ake
▁ele
meric
ft
▁most
io
cess
▁col
▁reg
▁Com
▁cons
▁5
▁Le
outh
oth
cted
ual
▁she
ren
▁This
▁only
▁cent
▁sec
ram
orld
du
▁used
rib
ween
▁me
The
ular
ished
▁pop
orth
ollow
reat
▁pr
▁there
ick
ener
▁On
▁6
▁op
▁Americ
▁sup
ilm
ve
▁pe
▁bu
▁sy
▁where
▁ear
▁sub
form
▁att
▁ret
▁we
rad
ily
▁during
ton
▁publ
ook
▁197
▁such
ouse
ince
▁between
▁rep
use
rans
ont
▁again
▁stud
▁them
cial
▁through
ident
▁acc
19
▁some
0,
ral
ered
▁rem
duc
▁act
▁than
oh
▁fe
▁so
oun
▁inter
▁qu
▁rel
ix
▁num
▁ass
▁dec
ities
▁made
▁pol
ins
."
ict
fore
ock
ason
▁pres
ever
▁three
▁later
ics
overn
ision
ating
pro
▁then
▁follow
ative
eld
att
olog
▁fam
ars
▁found
end
▁196
▁rele
▁about
▁film
▁mov
any
che
▁Sh
▁lar
ific
▁became
ten
ace
als
aj
▁end
▁prov
erm
0.
▁call
▁United
▁co
▁known
ury
ann
▁am
very
▁many
▁dist
▁ac
led
▁school
pos
ived
▁well
owever
ople
▁inv
▁being
ale
▁team
ank
iet
▁def
▁trans
round
ah
4,
ames
li
ject
▁ent
▁set
velop
ines
pr
7,
▁Col
emb
▁second
air
hen
▁including
5,
▁do
iver
▁appe
▁may
1,
ife
▁An
▁pos
iversity
stem
its
▁count
ather
▁ser
ik
▁char
▁record
ros
ulation
▁For
inn
▁Ind
ley
other
ield
▁At
▁mod
▁no
bum
▁American
ower
az
ement
▁add
til
▁Eng
▁four
ism
6,
8,
arri
ern
ep
tain
▁while
son
2,
▁sur
▁Z
▁high
▁main
ually
▁own
ise
ures
▁orig
▁inst
▁mus
▁both
▁oper
▁people
▁194
ists
▁before
▁Joh
ys
▁dif
ution
▁lead
▁area
▁sign
ired
▁develop
elf
▁ph
▁After
▁She
▁until
▁album
▁em
▁7
ober
▁cap
▁9
▁sever
▁group
▁med
cy
▁number
▁name
▁est
ron
▁city
3,
▁show
ash
oot
▁against
▁Sc
▁195
ven
▁govern
▁writ
ized
▁town
▁ed
▁States
▁bro
▁dire
ty
▁season
▁Is
▁Be
der
▁sing
▁system
ved
▁gener
ause
▁exp
erman
cept
▁John
▁called
▁Pro
▁met
enn
▁art
amed
▁sm
iew
▁cre
ting
urch
000
▁17
▁var
ute
▁mon
▁fl
▁use
▁8
aid
▁day
iving
rol
▁prog
▁University
els
▁these
ful
▁Brit
▁Wh
▁any
▁Fran
▁Comm
ctor
une
9,
tend
▁back
▁age
imes
ier
▁population
▁suc
▁min
▁several
ajor
▁There
ball
▁series
▁Con
▁long
▁contin
▁War
▁comple
▁ob
ctions
▁early
ales
▁air
ike
▁same
▁design
▁go
eb
▁fin
▁const
▁produ
ks
ract
uro
ives
ex
erson
ural
▁bel
▁hist
ional
1.
ple
ird
▁will
ically
ible
ues
▁World
▁house
▁feat
uss
▁Q
ments
▁open
▁May
duced
▁offic
▁released
▁state
▁song
▁Sp
▁aut
▁Can
▁run
the
▁Cl
ina
▁His
▁$
▁–
ax
▁rece
illa
ided
▁return
▁eff
▁German
rict
2.
▁Jan
aking
rid
▁public
my
ility
▁Car
ared
▁start
▁family
ued
ull
▁inf
vent
▁'
▁near
▁Aust
▁School
▁disc
▁land
ient
▁build
▁remain
▁sim
▁They
get
ger
ross
▁support
ured
▁game
ined
▁193
▁ann
ange
5.
▁spec
ped
▁Ad
▁differ
ants
ene
ium
▁music
lish
▁played
▁small
ged
▁band
rist
ague
▁began
▁child
6.
ised
▁following
ission
▁Count
ilt
ister
▁Ph
▁program
▁(19
▁since
▁bl
4.
▁occ
ling
▁cur
sh
▁conc
rent
▁did
3.
▁However
▁result
oint
por
▁National
▁major
▁pass
rand
ey
▁along
▁York
▁Ju
by
though
ital
▁former
pend
xt
ets
▁each
▁old
▁mat
▁organ
hes
ox
uary
▁term
▁colle
▁South
▁partic
▁could
▁government
iam
▁Euro
▁gu
▁10
arm
oci
▁commun
▁won
▁success
7.
gest
inc
8.
au
▁head
▁16
ret
▁15
ugust
▁book
▁Nov
▁vers
▁North
ll
▁charact
▁British
▁world
ove
embers
ring
con
ptember
orm
aving
▁station
▁line
▁Or
ris
▁prom
ior
▁now
▁Cent
▁named
rop
▁located
▁August
▁ext
▁192
oard
▁tr
▁century
tle
▁September
ians
ble
▁you
▁class
▁Oct
part
ently
▁ref
▁home
▁around
oman
▁car
ec
ternational
ai
▁January
to
9.
ices
illion
▁March
▁local
▁ty
▁ins
▁("
▁tit
▁Ge
▁appro
arch
▁June
▁Europe
ology
▁because
▁All
▁app
ording
mber
ek
lay
▁rev
▁October
▁US
▁City
ink
raph
chn
ula
▁estab
▁members
ately
▁consid
▁place
▁par
▁took
lack
▁large
▁July
pril
▁eng
▁include
▁last
ner
▁polit
▁.
▁(1
▁King
yl
▁care
▁mil
▁mark
▁requ
cember
▁rest
▁refer
▁Man
▁those
▁dr
▁present
ival
▁12
▁often
eter
▁County
▁April
ane
▁war
ages
▁During
resent
▁Par
▁bus
▁allow
▁Pr
eng
hold
ony
▁Will
▁Canad
▁left
iod
▁II
▁desc
ality
▁November
▁December
▁company
ats
▁Austral
▁Bro
▁due
ize
min
▁hel
ively
ience
▁north
▁conf
pect
▁built
▁incre
▁based
ored
ator
ament
ides
ified
iven
▁-
af
▁camp
wards
omet
day
atic
▁law
▁within
hor
augh
ights
med
▁Christ
▁cour
▁Bar
▁single
arried
▁held
▁trad
▁different
reen
▁down
▁still
▁report
cl
ille
▁if
▁West
ature
ele
row
bor
▁death
me
ster
ham
ott
▁Ed
▁power
▁soc
▁av
▁event
angu
▁det
ert
▁stand
▁club
▁very
itions
▁said
▁included
ially
omen
iness
▁villa
▁prof
laim
iety
ode
yn
▁six
▁Cal
▁str
oss
▁life
▁adv
uff
ves
rew
▁served
▁person
▁make
▁Am
used
▁191
▁div
▁Af
ges
▁Ass
▁received
▁join
ebru
▁Pol
▁water
▁five
ebruary
aster
▁equ
▁like
gy
▁lit
▁just
omin
▁Har
▁though
▁final
▁period
let
ounc
isc
rench
▁even
que
▁short
▁original
▁dem
▁tri
▁every
▁non
▁High
▁another
par
▁south
ampions
▁Gu
ruct
▁published
▁Mc
▁leg
▁addition
▁member
▁children
estern
▁February
▁cor
▁top
ney
▁po
reet
▁national
lu
apan
▁English
work
▁way
▁much
▁Em
ublic
ration
▁Air
▁current
▁Park
▁common
▁control
ootball
ps
▁Co
▁fac
ization
read
ese
")
▁Geor
▁fem
▁When
▁million
▁import
akes
▁By
▁State
oad
uck
▁Colle
eder
▁led
ency
ches
ief
▁vis
ody
attle
▁hand
▁compet
ences
raft
side
▁tele
▁ep
▁French
itary
▁River
▁resp
▁late
▁household
▁manag
▁iss
▁poss
vious
▁character
▁perform
ness
▁appear
▁bas
idd
▁crit
inning
▁Japan
▁Min
ilar
▁hum
▁aver
▁among
▁Sw
alth
▁effect
▁third
▁port
vision
ung
▁describ
vers
▁exper
ards
▁Acc
▁11
tal
com
▁Char
▁what
▁service
▁post
ning
▁died
▁Ab
▁list
▁beg
tended
▁val
▁examp
▁rad
▁(2
▁William
▁Ex
▁represent
▁son
▁turn
▁es
unic
alf
ining
▁X
▁level
▁fact
riend
▁pat
▁order
▁These
▁attack
▁And
▁repla
▁,
▁sold
▁14
urs
▁popular
▁chang
▁langu
▁League
ondon
▁came
ler
ords
ouncil
empt
lished
▁aff
ploy
uted
▁born
▁moved
▁month
▁best
▁ship
▁role
ison
▁&
▁origin
▁13
▁deb
ense
▁country
▁become
▁Part
cast
▁fre
▁few
amb
ino
conom
ering
▁building
ograph
▁El
▁1,
ead
▁contain
▁London
▁using
▁side
▁Afric
line
▁Her
ford
▁Pres
▁however
▁average
alk
stit
ruction
ries
▁sk
ampionship
ms
▁clos
▁process
▁One
anc
▁techn
▁great
ald
self
▁invol
▁sol
ases
posed
▁Bl
▁cr
▁given
ridge
ze
urther
urg
▁claim
ivid
ument
ounced
epend
▁kill
ray
▁men
▁students
▁career
▁history
ae
▁ca
ched
▁total
▁established
irc
▁Rep
▁educ
▁father
▁Sy
▁Dav
▁stat
▁various
▁vot
▁games
▁sit
▁England
▁mag
▁field
▁College
▁cover
rote
▁cult
▁version
ata
▁living
▁Cor
▁fun
▁previous
mit
▁went
lor
▁project
▁Te
▁init
cent
▁win
▁village
▁Russ
▁track
▁With
▁fore
iber
▁Ang
hem
ories
urb
▁having
▁profess
▁author
ington
▁similar
▁100
▁hig
▁business
▁190
▁special
▁tem
ones
▁elect
▁Sec
▁general
ront
▁la
aul
▁title
hern
▁Mus
▁bre
-1
ividual
▁next
▁prim
▁del
▁take
▁According
–1
▁young
▁created
▁Comp
▁tw
▁intro
▁dra
avy
▁example
▁produced
▁need
ached
ays
osp
▁Reg
aken
▁Me
oon
lin
sc
▁considered
ention
▁gr
▁Ital
sequ
▁histor
▁development
▁San
orthern
ops
▁political
▁times
▁married
▁without
▁formula
▁attempt
ole
▁East
eneral
yle
▁returned
rest
▁direct
ery
ots
▁wrote
adem
umb
▁continued
na
▁sl
▁activ
▁individual
▁prote
▁rail
eth
less
▁House
▁community
▁lim
▁comb
▁production
▁Phil
omb
ship
▁started
▁beh
▁Island
▁sent
astern
▁Sup
▁25
▁squ
▁grad
▁influ
reg
of
uk
▁species
ape
thern
app
▁announced
ivil
ither
etwork
▁Med
▁host
▁189
▁typ
de
oph
ummer
ably
aff
▁pract
▁important
outhern
field
gether
▁together
▁less
▁military
▁region
▁point
▁tradition
forman
▁particular
press
lect
ana
▁sw
▁defe
▁full
▁position
unicip
ript
ensus
▁dest
▁written
▁disp
▁indust
off
▁television
▁lab
▁Ne
alt
0%
▁road
▁appeared
lear
▁real
▁Church
▁news
▁engine
▁ter
▁broad
▁although
▁econom
ogn
▁Street
ville
be
▁ident
ara
▁district
▁Soc
,"
oyal
▁ant
▁arch
▁epis
▁Br
▁Dist
▁interest
▁women
pecial
ters
ush
br
▁hous
▁areas
▁ke
▁opened
▁award
▁site
▁offer
▁player
▁view
▁compos
▁Some
▁football
▁Ste
wh
ertain
▁days
formation
arent
▁vol
▁right
most
ountain
▁Pe
▁further
▁Tr
▁rese
BC
utes
▁friend
rick
co
▁associ
▁test
olution
now
▁avail
ances
▁Hol
▁promot
iron
▁From
▁command
▁never
▁modern
▁We
20
▁mult
▁low
ination
▁story
▁President
▁developed
▁Canada
▁official
▁mer
plic
iding
▁himself
▁should
▁find
▁Mich
born
▁exist
▁Port
▁Ear
ius
▁proper
dom
▁Ser
▁La
▁While
▁somet
▁Roman
▁International
▁European
craft
▁party
▁formed
▁east
▁read
▁188
▁Indian
▁el
▁Res
▁performan
ways
▁lost
▁Army
▁Cup
▁does
ointed
int
▁election
▁joined
ping
ports
▁half
ask
▁belie
uit
atter
partment
▁cond
▁pri
▁fail
iforn
nect
▁pain
▁sug
▁hold
▁good
▁west
▁recorded
▁hy
▁Des
ope
minist
iment
▁No
▁George
▁grow
▁America
▁Australia
▁separ
▁0.
▁James
▁worked
▁nov
ream
▁Act
▁brother
ilies
ills
▁Sch
▁making
▁ide
▁signific
▁Per
▁186
▁language
▁ren
ule
▁Party
▁works
idence
sk
▁priv
ifornia
▁En
▁Gl
▁mid
▁others
▁France
uel
ological
ising
rem
▁case
▁General
▁body
reek
▁available
go
ours
▁Pl
▁Rober
▁Republic
▁struct
▁employ
pite
▁rock
bs
▁gen
arn
▁mater
▁Nor
▁California
mp
▁social
▁Sm
▁Val
▁mot
▁Rich
lex
lo
▁Although
▁described
▁independ
▁Mon
▁size
▁Govern
▁arr
▁Ber
▁circ
▁invest
imately
olic
▁Council
▁founded
ying
itor
iddle
aper
▁wife
▁er
anted
▁successful
▁Rec
ourn
▁Road
ership
▁ground
▁Thom
ett
▁usually
aign
▁strong
▁star
▁Gro
year
ained
ells
▁my
▁tro
▁Div
rap
▁dev
▁human
▁must
▁Que
▁gl
rie
▁Union
▁largest
▁live
▁international
ls
▁president
▁meet
ensive
▁Ag
rug
uf
oe
▁light
▁island
▁church
ha
▁fund
▁187
▁Associ
ideo
▁District
▁release
St
ming
▁Hall
▁Mor
▁Bel
van
▁income
▁let
▁rul
▁deg
▁suff
istic
▁market
▁30
▁once
ators
▁relations
wood
▁Cour
▁Ac
▁black
▁municip
anish
▁services
▁across
▁Lou
▁seen
▁get
▁recogn
▁cross
▁followed
▁ten
▁Ap
▁daugh
val
▁tour
itive
ani
ellow
▁elected
atch
▁round
▁proble
cing
▁Tra
ceed
▁cost
▁ord
ama
rated
▁working
▁free
▁taken
oints
▁produc
▁sour
▁mar
▁race
▁months
▁match
▁fire
hib
useum
▁India
hod
▁office
▁particip
here
ened
ael
▁significant
▁press
oor
▁vict
▁Pal
key
ential
▁2.
▁cou
band
▁reported
▁ve
▁[
nder
▁hon
▁becom
▁Qu
▁product
ought
view
ili
▁David
iting
oney
▁suggest
▁how
▁schools
▁rank
iol
▁material
▁throughout
▁either
▁impro
▁agre
▁base
cer
▁Royal
▁cast
▁Paul
ee
▁Bra
▁earli
▁remained
50
▁entire
roy
icle
▁Other
▁forces
▁Dem
▁research
▁eventually
ico
bert
gin
▁sound
ocr
▁relig
▁playing
▁expl
enced
▁laun
▁2010
ederal
▁You
▁put
▁signed
fic
▁Germany
5%
▁originally
▁To
▁gave
liament
▁Hen
▁eight
▁mother
chie
itte
▁Red
men
▁fall
▁Jew
▁radio
▁anim
ago
▁events
▁away
▁contrib
▁network
▁campaign
▁Championship
▁Rail
ification
▁park
▁Town
▁plan
asing
▁see
ability
▁phys
▁White
▁appointed
acy
ply
▁UK
igned
atural
ilities
▁Ant
▁groups
▁replaced
▁enc
▁red
▁wid
▁includes
.,
ma
time
▁Black
▁states
elling
▁2006
▁education
▁songs
ique
▁acqu
▁regular
▁Dr
▁front
▁Since
▁performed
▁consist
erous
▁help
hers
▁fight
aut
hest
itar
▁featured
▁construction
▁features
▁Mac
▁Art
ica
▁ste
west
▁1.
▁points
▁Jack
▁bar
▁Mil
▁bo
▁range
ishing
▁Mal
▁model
▁Lat
▁mean
▁space
▁24
aur
mercial
▁dam
▁access
▁older
▁designed
put
▁Company
▁Cath
▁arg
▁liter
▁able
▁Association
▁Sen
▁Division
rain
ibr
▁above
▁foc
▁style
▁completed
ference
▁treat
▁Christian
ware
▁units
ements
rag
▁Japanese
▁Bay
▁upon
aching
▁subsequ
▁aircraft
▁Great
▁provided
▁Che
ander
ude
▁leading
▁know
ashington
▁median
▁rather
▁saw
▁hit
▁introduced
iction
▁z
▁occur
atory
"),
ston
ipp
▁frequ
▁close
▁video
▁Award
▁Mary
▁stri
rought
▁tre
▁Court
iers
▁21
omm
incip
▁subject
▁accept
▁Robert
▁pur
▁study
elt
▁administ
▁assist
▁condu
▁contract
cle
▁Pat
▁bank
▁Charles
▁2007
▁Australian
▁information
stand
aries
,000
ids
arily
▁change
▁countries
▁Je
▁seven
▁di
ari
▁Western
▁respons
▁doc
asons
itz
ffic
▁households
udd
▁gradu
pecially
▁female
▁review
▁novel
ores
▁white
▁anal
▁daughter
aged
ateg
▁Cong
▁week
▁fav
iation
▁But
annel
azine
▁surv
▁Cap
▁families
▁past
▁involved
▁least
oice
▁added
oms
utive
imate
▁civil
▁km
icated
▁Washington
▁method
▁Sim
▁episode
▁aud
▁Mart
▁Vir
▁capt
serv
burg
medi
iqu
▁parts
viron
sy
▁county
right
▁constit
head
▁Stud
ittee
inese
sel
▁African
▁players
▁exec
rian
▁performance
▁possible
aker
▁discover
▁reb
▁connect
▁express
▁instead
▁cop
▁respect
▁der
oll
▁situ
▁board
pan
▁polic
itch
▁sym
▁almost
face
▁broadcast
▁court
ranch
▁force
▁Center
▁inj
3%
▁1980
itect
estival
▁itself
ades
▁private
road
▁achie
▁Pri
▁Lake
▁professional
▁training
ength
▁Angel
ving
▁killed
▁central
▁far
▁Canadian
idents
▁commercial
▁First
▁director
▁Ir
▁Mag
Ch
▁reached
▁Thomas
▁mass
▁Many
atives
▁meas
▁provide
▁generally
▁1990
▁flow
2%
▁Central
ems
rab
aint
▁brought
hood
vert
▁pred
▁Most
▁travel
▁census
▁prot
stitute
▁below
▁pot
gen
vin
▁center
▁critic
▁league
not
▁mem
▁king
▁China
utions
▁shows
like
▁night
▁changed
▁Louis
▁river
▁sometimes
▁185
1%
▁teams
▁Mont
▁Sam
▁decided
oviet
▁systems
rup
tt
▁whose
▁ill
▁type
▁look
▁Law
▁standard
uses
▁anc
bour
aval
8%
ensity
▁stated
▁fig
▁stage
uture
▁capital
▁bi
▁65
▁maintain
▁Met
▁effort
▁TV
▁debut
▁object
▁Green
▁pay
▁miss
▁regard
lam
▁Mex
▁dou
7%
▁opt
ournal
lymp
▁function
▁God
ufact
▁hom
▁especially
▁2000
").
▁Chinese
6%
▁Franc
▁Its
4%
▁transfer
uter
rey
ij
▁hard
▁1970
▁bord
▁outside
▁distrib
0,000
board
▁neg
▁Club
▁approx
▁say
30
▁currently
▁Alex
▁Gr
isl
▁neigh
..
-2
back
▁Tex
ym
▁occup
airs
apt
unk
▁rights
▁184
▁higher
▁lower
▁allowed
▁Olymp
▁imp
▁gun
▁cut
▁Mark
▁Group
▁Scott
▁Rad
▁Up
ume
▁Im
▁soon
▁2008
▁Grand
▁finished
▁sele
▁health
berg
▁account
ademy
▁Kh
▁northern
▁2,
▁ball
CA
▁2005
atre
▁Kingdom
iff
▁purch
▁lik
▁females
▁means
▁stre
▁Minister
▁coast
irth
mon
▁Spanish
▁required
▁southern
vironment
▁trib
▁Catholic
▁Department
▁Tur
▁certain
▁Soviet
▁tax
▁Wil
▁Michael
▁Don
▁wind
mar
▁loss
▁relationship
▁viol
▁thus
rown
▁Henry
▁pers
ned
alled
▁phot
▁colla
▁Mer
ospital
▁Hist
pire
▁Ham
▁battle
▁Serv
▁except
▁oppos
▁cand
▁deal
▁traditional
▁Frank
▁little
▁wee
▁movement
TV
–19
ites
▁too
▁ever
▁data
▁beginning
hel
▁action
▁mix
▁Sal
9%
▁compan
10
▁Hill
▁creat
▁sem
ror
▁goal
reland
ises
▁cal
▁via
asion
▁Vict
▁placed
ida
▁22
▁princip
▁sex
▁dep
lands
▁instit
▁films
▁Gold
▁Sk
▁section
icles
ya
▁esc
▁Not
ension
sec
▁observ
▁Mad
ounter
▁route
▁plann
▁exc
▁primary
▁books
▁cy
leg
▁territ
aps
ires
▁determ
▁Richard
▁Cons
▁Italian
▁coach
▁destroy
▁square
▁ask
▁college
▁farm
▁runs
rial
nown
olf
▁Ze
▁police
▁army
lim
▁sett
▁food
▁manufact
▁Democr
▁adop
ollowing
onst
▁remov
▁Miss
▁summer
▁imm
▁2011
▁Peter
▁key
▁stop
▁awarded
ergy
▁whom
▁(18
▁Fl
ficult
▁Tor
▁lo
▁Russian
▁Ke
▁Penn
▁quest
▁behind
olk
▁complex
inent
edy
▁bur
ita
▁according
▁natural
aled
unt
▁parent
▁Trans
▁""
▁earlier
▁industry
▁famous
hing
▁reve
▁cred
▁Virgin
ography
unn
aves
rel
▁2004
▁difficult
▁increased
▁operations
▁Following
elled
▁word
▁terms
odes
▁ended
arter
▁Society
urity
usband
shire
▁architect
▁Jose
▁Two
▁multip
▁fourth
▁1960
▁establish
▁future
oo
▁transl
▁Smith
▁come
based
ux
▁Congress
▁writing
ready
chan
▁Sing
venue
▁independent
▁individuals
ground
▁Rock
▁sch
▁cele
▁plant
▁2007,
▁Africa
▁taking
▁If
orpor
▁fif
▁super
▁Tom
gr
oul
▁2006,
ection
▁surround
▁concern
hab
▁previously
lav
▁self
▁2009
▁break
arian
▁highest
ibility
▁Ireland
heast
▁Music
▁characters
▁gold
▁50
▁Ter
▁degree
etic
▁Academy
oper
oid
▁thought
▁Lab
▁owned
▁density
▁den
▁sat
▁active
adium
▁closed
duction
action
▁2010,
ancial
alls
▁23
rael
▁Inter
▁majority
▁candid
▁sil
ria
bers
lace
-19
▁sus
plied
▁husband
▁ge
▁towards
▁caused
▁jud
och
▁structure
▁move
▁abs
oys
▁Texas
▁rate
▁Pac
za
lant
▁Records
▁referred
▁Institute
▁Day
pected
▁Bur
▁Victor
▁centre
ios
▁lack
asc
▁approximately
▁studio
▁money
▁numerous
ishop
iles
oring
usion
▁applic
▁Cont
▁location
▁Chic
▁clear
ibrary
▁Camp
▁ran
▁buildings
▁concept
▁keep
▁Pet
▁My
▁prob
▁block
umn
▁chart
▁expand
ows
ocal
▁percent
▁division
▁br
▁larger
▁already
SA
▁leader
▁limited
▁practice
ulated
▁veh
▁transport
ena
erve
rd
▁associated
known
▁related
ump
▁minor
porary
▁Old
▁directed
▁3.
rack
▁student
enc
▁che
lag
orial
▁defeated
▁qual
▁norm
▁consider
▁particularly
▁grand
▁length
▁personal
▁Paris
▁plat
▁settle
aring
▁Los
▁magazine
▁longer
▁cat
▁western
oke
inct
▁Second
▁changes
▁attended
well
▁2008,
▁document
▁additional
▁drop
▁stations
▁prison
▁26
▁40
▁Commission
▁hor
▁wood
▁Year
▁spent
▁organization
▁remains
▁railway
▁theory
▁pie
▁races
▁CD
▁better
▁names
▁today
▁lived
▁programs
▁quick
▁arm
▁Swed
ests
aland
arriage
▁sen
▁economic
uments
uz
▁amount
▁winning
▁Op
▁immedi
▁Cast
change
▁trade
ging
▁intern
▁nar
▁Carol
▁emer
▁equip
▁28
mitted
▁evidence
rying
ify
▁big
▁cust
▁Israel
▁complete
▁nomin
▁Sir
▁mostly
▁Force
▁lines
▁temper
unity
▁believed
selves
ala
▁themselves
ga
▁2009,
▁municipality
▁companies
sych
itiz
iter
▁gra
▁Sant
▁Battle
▁appearance
▁Greek
▁bene
ye
▁scored
▁prior
▁forced
reme
ils
era
▁religious
uke
▁183
atively
▁Fin
ota
▁emb
▁Scot
▁media
lying
▁fle
▁Brown
▁Navy
▁musical
▁Parliament
▁running
▁contains
–0
▁27
▁feature
▁dig
irm
het
▁Rob
hi
rief
▁course
▁noted
▁investig
ano
▁forms
iences
ructed
▁opening
▁Mel
▁Ma
▁bound
▁Fort
▁instr
eds
▁indic
▁newsp
▁Fore
▁Just
▁prevent
ka
ands
▁give
mark
ift
ingu
▁altern
▁passed
▁Bo
▁prem
▁guitar
▁cases
▁mountain
▁Chicago
▁operated
▁draw
ini
▁becoming
cher
NA
▁Angeles
istry
▁issues
ylvan
uth
lic
▁staff
▁ens
▁uses
▁(200
▁competition
wide
▁tar
▁claimed
▁Flor
isions
▁manager
▁don
▁schol
▁mach
▁separate
ona
itation
▁university
▁environment
▁3,
▁birth
...
▁()
▁always
▁increase
▁Rev
▁Ben
▁property
aught
▁sequ
▁energy
▁collection
▁hours
▁seat
▁sum
retary
▁Arch
▁prop
▁offered
plement
▁gir
▁Del
wer
utch
▁Museum
▁complet
▁Mo
▁depend
▁mur
▁Valley
▁lay
▁$1
▁Super
hy
▁issue
▁create
overs
▁annual
izing
▁scient
▁Lord
ero
▁meaning
▁Later
▁federal
▁Saint
▁eas
▁Best
▁culture
▁legal
ien
▁dom
▁variety
▁attend
▁anti
▁Despite
▁mission
▁unit
▁2003
see
▁championship
▁saf
▁2011,
▁Northern
iled
▁influence
reater
ault
▁2012
▁launched
▁mention
▁might
▁inte
▁Government
▁colon
▁Pacific
▁date
▁shown
ricult
▁initially
ste
aches
▁Wal
▁accom
vey
▁Liber
ylvania
▁Wood
spe
▁science
–2
▁require
▁supported
▁BC
▁pen
irt
▁Under
inary
▁decision
▁Squ
using
▁Italy
▁troops
▁Rou
▁financial
▁Kore
▁Their
▁recent
isk
▁threat
▁Irish
▁dram
▁log
▁obtain
▁appears
itan
▁Mr
▁Gra
ulf
ether
▁status
▁continu
embly
▁Zealand
▁et
60
▁housing
▁surface
▁foreign
rast
▁commission
▁entered
▁wide
anced
▁Britain
▁Dire
ote
▁studies
▁specific
▁Atlant
▁latter
writ
▁sports
▁failed
▁spread
▁That
▁Bill
ams
▁interview
▁residents
▁soft
▁hot
▁Play
den
▁phil
▁rap
ada
bit
▁leaving
▁victory
▁increasing
▁source
istan
▁batt
bur
▁Bet
▁discuss
ols
cript
▁male
▁Mass
▁proposed
▁cities
▁job
▁sea
▁train
▁takes
ras
peror
iring
▁males
bon
▁activities
urban
▁nearly
ola
▁estim
▁eth
▁Virginia
▁Committee
▁#
In
▁carried
▁Another
▁exhib
▁Board
▁problems
▁brief
▁step
▁text
▁weeks
▁Do
▁Bu
▁woman
ician
▁represented
▁bomb
▁Empire
80
▁numbers
▁listed
▁turned
▁provides
▁defend
▁Mill
▁results
▁2005,
onse
▁nation
▁cause
▁subsequently
▁going
▁chief
▁enough
▁Jewish
vention
standing
▁2012,
▁eastern
▁Joseph
▁helped
bury
uries
▁Off
▁domin
▁finally
▁happ
sp
▁legisl
lit
▁Penns
▁necess
▁2001
▁box
imum
▁ded
▁policy
raw
irit
▁remaining
▁2002
iance
▁heavy
va
▁fort
▁adj
▁done
▁Cur
▁Bank
▁love
▁pow
FL
▁incorpor
▁stay
▁Columb
▁poor
Th
▁arran
▁recording
▁visit
▁value
▁shot
▁Film
▁directly
▁Georg
▁Football
ider
oma
▁29
uge
gl
▁Pennsylvania
▁nine
pose
▁movie
▁(199
yr
▁mechan
▁tourn
▁writer
▁mainly
▁Both
enth
ado
▁words
ously
▁Fer
▁univers
▁ships
40
itt
▁Educ
12
▁goals
▁Kn
▁Aut
onn
▁Oper
▁depart
▁label
▁journal
ario
inet
▁nearby
▁middle
▁Jim
mission
▁conditions
▁forest
▁target
igan
▁inn
▁McC
▁Southern
▁celebr
rative
▁Mur
▁artists
▁Florida
▁$2
ees
▁detail
isation
▁1950
▁Sun
▁presented
iant
▁Gar
▁45
▁link
▁makes
▁Haw
▁elements
▁Mexico
▁More
▁Kar
▁lic
Americ
itude
▁Mod
▁4,
▁rule
house
▁Earth
ban
mond
▁smaller
▁alone
▁despite
▁bring
ties
▁expla
▁ver
inner
▁houses
▁seasons
▁sla
▁produce
arters
▁serving
icro
▁Wales
▁typically
▁Line
▁citiz
▁succeed
▁retired
▁Ro
▁historical
▁2013
▁primarily
onic
▁Mountain
▁nature
▁Sur
bre
▁Martin
▁Go
▁Arab
▁2013,
▁management
▁whether
▁ancient
▁got
▁Queen
umed
▁screen
ients
▁crew
▁bridge
▁reason
ession
▁asked
cend
▁Den
▁whole
▁council
▁society
▁marriage
▁Over
▁artist
▁Inc
▁Fred
▁levels
▁Pre
▁speed
▁operation
erem
▁score
▁sister
▁affect
▁Latin
▁raised
▁meeting
aters
▁Mos
▁Festival
▁ess
▁consists
▁31
▁idea
▁acquired
▁tracks
▁room
▁told
▁conv
▁pil
▁Radio
▁response
▁experience
▁multiple
▁Win
undred
ss
▁Spe
▁poet
▁learn
▁Cla
▁vote
▁insp
down
gely
stant
fit
illed
resp
ura
ken
▁2000,
▁Class
uan
▁2014
▁Found
rim
▁selected
▁commonly
airman
▁teac
▁platform
▁quickly
aily
▁likely
thlet
▁parents
play
▁highly
azz
▁prin
ledge
▁wanted
▁chall
▁starting
▁III
▁composed
▁Railway
▁display
▁plans
▁responsible
ette
▁Broad
▁Ele
▁discovered
▁Public
▁serve
▁decla
▁types
▁medical
▁Eastern
imb
▁minutes
▁dise
▁Middle
▁Also
▁kind
unction
gress
▁singer
II
▁£
▁divided
▁weap
▁Er
ares
▁Oh
▁issued
cel
▁diss
BA
▁languages
▁arrived
▁cell
ersey
ato
▁technology
▁arrest
stitution
▁Service
▁edition
orough
▁Avenue
▁bird
▁products
teen
▁Spain
isco
11
▁computer
oura
▁prec
▁Ros
▁extended
▁Sl
▁here
▁brand
▁Arts
▁peak
▁Edward
▁comment
▁widely
▁studied
▁pric
▁nuc
▁ult
▁Sub
▁records
▁conver
▁BBC
agn
ta
▁Ev
▁officer
▁leave
70
ysis
▁intended
ech
▁Pan
▁paper
▁Fre
▁Bow
▁Ann
▁basis
▁province
pre
win
▁replace
▁initial
▁—
▁growth
▁Land
▁Tele
ockey
stra
▁2014,
▁problem
ady
▁mile
▁Book
5)
▁neighbor
▁pick
▁plays
▁Prince
▁effects
▁miles
▁philos
▁Bob
▁constructed
▁border
▁capac
ulations
▁largely
▁autom
▁Route
▁unc
rupt
▁continue
FA
▁oil
▁symb
▁blood
▁psych
enty
▁Spr
arden
▁face
BS
ested
itted
▁native
▁Hot
▁Of
3)
▁letter
ully
ao
uman
▁channel
poration
▁tend
▁18,
▁address
▁collabor
zil
astic
▁laws
ittle
igr
▁ang
vement
▁belong
▁removed
▁Star
ican
▁scene
enes
add
▁Cat
▁path
▁heart
▁Chief
▁foot
rovers
ables
▁progress
▁adopted
▁Long
▁Dou
oir
ental
ples
▁share
▁Sil
▁notable
▁Histor
▁Cle
▁chem
iated
war
▁senior
ua
▁rat
▁Scotland
rif
▁Education
▁quarter
▁decl
▁Work
▁182
▁managed
▁drug
which
▁dut
▁needed
▁Times
▁sal
▁our
▁slow
▁officially
▁editor
▁Dutch
icient
▁honor
▁1999
▁covered
▁heav
emporary
▁double
ellig
▁Russia
▁counter
inated
light
▁Lee
fect
▁2015,
.)
▁Ty
▁question
▁ability
more
▁Leg
▁Ill
ky
▁enem
▁Asian
▁extra
▁inhab
gypt
4)
▁chap
▁communic
oston
▁2004,
etball
▁Gal
▁academ
▁Are
hat
▁How
▁Prov
erry
▁renamed
▁overall
▁Governor
▁pressure
▁coin
inals
▁Sat
omer
▁stories
6)
▁ordered
▁Main
ev
▁repe
▁categ
▁direction
orning
ronic
obal
▁Jud
▁immediately
ny
▁yet
osing
▁deep
▁du
▁gas
▁Ha
▁earned
▁Tod
▁Wind
fess
bed
▁dead
▁Out
▁Techn
awa
▁Cro
▁reform
▁organiz
akers
▁physical
▁saying
▁Islam
▁friends
8)
7)
▁actually
▁demonst
ening
▁campus
respond
▁recently
▁Democratic
▁soldiers
▁behav
▁Portug
▁metal
itled
▁officers
▁System
▁controvers
▁agreed
▁sched
▁destroyed
▁color
▁Sar
▁territory
AS
▁potential
▁facilities
▁thr
▁cultural
▁rare
oned
▁24,
▁therefore
met
▁2015
▁operating
▁format
▁0
▁gain
▁matches
▁fr
▁Sea
▁contact
antry
▁cars
▁agricult
▁Bus
▁Egypt
▁Jones
▁dyn
▁Def
▁grew
▁prominent
▁Sever
▁Big
▁regional
▁Mot
▁Airport
▁streng
thing
▁Sa
▁protect
unior
gend
▁era
▁Civil
▁Brazil
▁Muslim
▁180
▁uns
▁Vol
with
▁distinct
▁newspaper
▁conne
▁Cam
▁planned
▁Order
▁greater
500
▁models
▁tournament
dro
▁2016,
▁implement
lah
▁upper
earch
cean
▁Sol
▁Sund
gers
▁So
▁Carl
▁hundred
▁producer
▁lif
▁Carolina
▁Bec
law
gar
▁Theatre
een
gu
▁2016
▁Williams
▁5,
ips
alle
▁estimated
▁Young
▁lin
ocated
adel
▁Mem
▁hospital
▁partn
▁cle
▁concent
American
istics
▁Boston
kins
▁accepted
rison
ropol
▁probably
▁Mid
▁resist
▁follows
▁Bas
ampion
▁Coast
ety
▁4.
▁Hel
▁Dis
▁Ohio
▁Each
▁treatment
▁think
ipl
▁ut
ati
▁squad
▁Add
▁News
▁Major
▁Conserv
▁Tri
isher
▁Highway
▁webs
▁Ol
▁Luc
▁adult
▁collect
AC
▁shoot
▁parish
enant
▁Jes
▁Francisco
km
▁har
▁giving
▁workers
▁flight
▁overs
mir
▁Johnson
▁elections
▁gained
▁municipal
▁reduced
▁inside
▁card
▁simply
AF
▁Jul
▁resulted
chester
rate
▁mentioned
▁opport
▁favor
▁purchased
▁versions
1)
agon
iana
▁moving
▁albums
▁suffered
▁Republican
▁transferred
▁activity
▁comes
gent
▁mor
▁industrial
cul
enger
▁Polish
▁headqu
umber
▁revealed
▁corn
▁Because
▁efforts
▁equipment
grad
▁perman
▁sources
▁administration
burgh
▁resulting
▁conducted
▁offers
▁Jo
2)
90
▁correspond
iform
▁compared
▁places
▁reach
▁pack
▁Show
▁sens
▁approach
izes
anda
▁Kent
▁purs
▁1998
▁stra
nic
▁someone
▁capacity
▁Stan
olved
▁cannot
onents
▁branch
▁fa
▁Creek
pression
▁defeat
aped
▁combined
15
▁Jersey
▁continues
▁fellow
▁lives
▁quality
▁declared
▁Cross
▁split
▁Av
pass
▁charge
▁withd
ki
▁fifth
▁2017,
▁attention
lers
▁recover
▁Matt
▁aim
▁Di
▁communities
▁Awards
▁electric
aging
▁aband
▁Ott
rich
▁Series
▁(20
iano
▁true
wan
perial
▁magn
▁voice
Ar
▁Station
▁presence
▁actor
▁museum
▁street
ented
▁alongside
can
▁peace
▁Mat
▁affili
▁article
▁Dar
▁demand
▁Four
▁settlement
▁feel
ache
▁respectively
orship
▁Pak
▁agreement
aces
▁appearances
▁Social
▁Charl
▁Jackson
▁defined
duce
fort
▁Senate
▁max
▁Science
▁Asia
▁Columbia
▁becomes
▁Kenn
▁Mah
▁Mount
abeth
▁apart
gram
▁Jac
obile
onent
▁dedicated
▁Bridge
▁suggested
nding
▁Bre
▁serves
▁pra
ih
▁wear
▁Pla
▁Centre
▁department
oles
▁sail
▁township
▁occurred
▁walk
▁traffic
▁People
edd
wa
▁master
▁thous
▁citizens
▁flag
▁conserv
lict
▁solo
▁fell
▁expanded
ancy
▁blue
▁7,
▁distance
stein
▁security
▁Step
▁surrounding
amily
ibly
▁defin
▁serious
▁store
▁leaders
icted
ansas
rong
ivity
iser
▁liber
▁i
oration
▁captured
stone
▁Tour
▁episodes
set
▁1997
▁carri
▁green
▁motor
▁..
sw
▁relatively
▁featuring
▁condition
range
isters
▁scholars
ishes
▁instrument
▁Assembly
force
aling
▁Tro
▁Scottish
ounds
▁60
▁1996
▁sales
▁frequently
ried
▁code
▁Rome
luding
▁impact
Le
oted
▁Men
▁kept
ansion
illy
istered
RA
encies
9)
state
▁parties
▁damage
▁Three
▁Hy
";
▁dark
▁cerem
75
▁Hung
▁urban
▁rapid
▁resour
▁Conf
▁2003,
▁propos
▁Corps
▁pan
▁Top
▁firm
▁pattern
▁promoted
osh
▁Sand
▁rules
ca
ns
▁Secretary
▁Alexander
▁Census
▁allows
▁Albert
▁Township
▁focus
▁candidate
▁=
▁provin
▁claims
iger
▁2018,
▁titles
▁mess
VD
ieut
apers
▁Far
yal
▁Inf
▁granted
▁amb
▁Native
class
▁portion
▁projects
oud
▁Emperor
▁Cr
nes
▁bad
▁fast
col
▁felt
gg
CC
▁knowledge
rane
▁$3
▁6,
25
ogue
ali
▁Tim
▁Tre
rugg
▁recomm
▁trains
▁slight
erc
▁paid
gian
▁completely
▁5.
▁Eliz
▁recognized
onto
rical
▁Ray
▁positive
uting
▁Tem
▁spring
▁tal
▁Duke
▁dial
ophy
bl
vis
▁newly
▁Blue
no
▁Van
▁Corporation
dney
▁figure
▁Prime
▁prep
pri
▁vari
ighter
New
edom
▁Ly
▁Budd
▁enter
▁identified
▁critical
▁creation
▁Ont
miss
iro
▁Post
▁Water
▁distribution
▁racial
▁Bern
▁unique
▁1930
nam
▁gives
▁expected
▁cells
phy
▁element
hens
▁forward
▁179
▁suit
▁allowing
mas
▁exam
▁hop
▁8,
▁stars
▁Bul
pton
▁applied
▁Game
hew
▁tried
▁(198
ricts
▁(3
▁secondary
▁cam
▁Among
▁Tw
▁Before
▁Office
▁Ca
▁secret
yan
▁Profess
▁measure
▁fix
▁Love
▁leadership
▁pal
osen
inger
rance
▁says
▁Ver
▁resident
▁Jeff
▁lies
▁experiment
▁Viet
▁Fe
▁Max
▁spirit
olid
▁tank
▁integ
▁purpose
▁2017
▁Pen
▁digital
▁assigned
▁pict
▁ir
▁captain
▁roles
▁Hon
▁showed
▁Brook
▁providing
▁Little
rics
▁labor
▁fully
ias
▁table
▁stock
▁growing
▁Ontario
▁15,
▁elev
▁refused
▁Research
▁Ox
▁Camb
ureau
▁organized
ora
▁Federal
▁181
▁disease
▁connected
▁pun
▁2006.
▁Way
▁towns
▁Dan
Sh
▁coal
iced
▁hosted
▁marked
▁recommend
ieutenant
etts
▁Dev
▁Several
▁youth
▁titled
▁risk
rence
▁meant
-3
yond
▁Conference
inois
▁Victoria
▁image
▁Georgia
▁regions
▁airport
ifying
▁su
▁Rog
itness
ricket
▁Fle
▁content
▁dance
▁retire
odies
▁authority
▁Olympics
inity
hemat
▁plants
▁literature
▁graph
greg
▁Card
luded
▁estate
▁enj
▁joint
▁Fox
▁consum
thur
▁2007.
▁Sydney
▁...
▁attra
▁shop
bo
▁nort
▁occasion
▁strugg
▁attacks
▁Revolution
▁ranked
▁mill
▁seem
▁Field
▁feet
▁Andrew
▁economy
▁500
▁ice
▁inform
▁software
▁bask
ón
ela
▁academic
ception
▁Common
▁wild
▁Ira
▁murder
ione
ounded
water
▁Mu
▁receive
▁Iran
▁12,
▁settled
▁weight
▁ly
▁wa
Al
adelph
velopment
esh
▁website
▁1994
▁executive
▁classes
kin
▁sexual
▁billion
ube
▁twice
estic
▁Games
▁Philipp
▁succeeded
ager
▁necessary
TA
▁Cy
▁script
▁Lew
▁Corn
▁Director
▁coming
▁Prem
▁opposed
urt
▁Illinois
▁pet
▁Hind
achus
▁spons
isted
▁Hor
▁sn
▁1995
imal
▁opposition
▁Ram
ilding
▁fans
▁bass
▁custom
▁supply
▁begins
▁rot
ropolitan
▁search
▁conflict
▁Foundation
▁Clark
▁owner
▁normal
rect
▁About
▁Jean
▁vac
▁10,
wing
▁reference
▁pit
▁Michigan
uct
ima
▁hands
iate
▁Ash
▁votes
▁beat
IA
▁winter
▁acting
▁35
▁floor
ić
▁powerful
▁sense
bec
▁contemporary
▁bow
aka
▁facility
▁Elizabeth
adelphia
▁reserv
▁analysis
asty
▁situation
▁ce
▁Gir
▁oldest
▁Toronto
ederation
gal
▁existing
▁semi
▁things
zy
▁situated
itage
▁mut
▁contrast
▁graduated
▁animals
irmed
▁alle
uls
▁subsequent
▁apparent
▁stone
▁reject
▁Boy
▁achieved
▁Kong
▁Good
▁Poland
orter
▁Ul
▁highway
▁Det
▁seats
▁trial
IS
amber
▁mixed
▁sites
▁Wild
▁6.
▁Head
▁extend
▁medal
▁conduct
sex
▁designated
▁concert
▁Os
ef
plies
▁couple
▁machine
▁temperature
▁simple
▁Atlantic
vard
▁positions
emeter
▁cab
▁clubs
▁dropped
▁descend
▁figures
▁minister
▁royal
▁governor
▁1992
outheast
▁fighting
▁Tay
▁Summer
▁employed
inate
nel
▁mom
▁effective
lab
▁touch
▁Song
▁arms
▁elim
▁parliament
13
▁sport
▁buried
▁attempted
▁Like
▁Life
▁Supreme
▁2002,
▁Lu
▁Villa
▁cart
▁methods
antly
aly
▁Arm
▁expansion
▁theme
▁leaves
▁centuries
▁formation
▁climate
ador
ko
▁vess
▁Philadelphia
▁union
▁7.
▁seek
²).
▁performances
▁Jr
achusetts
▁11,
▁extensive
real
oty
▁organizations
▁drive
ski
omy
▁2018
▁Brad
▁Fair
resh
▁Engine
▁aspect
rig
▁Through
▁taught
▁distingu
▁boy
ifically
▁officials
onia
▁Team
▁ple
ograp
▁tree
14
▁Joe
▁Women
▁fuel
▁twenty
▁fish
▁Network
▁column
▁headquarters
▁Bureau
wise
▁stadium
▁2001,
▁attempts
▁chosen
▁memory
▁32
▁younger
ownt
eding
▁losing
overty
▁bal
▁Castle
16
▁programming
▁etc
▁portray
▁Dun
aya
▁Iraq
▁Massachusetts
',
▁sides
▁inters
▁/
▁Bal
▁dog
▁fair
▁launch
▁Test
);
▁entitled
▁Wilson
elligence
'.
▁<
▁combat
▁powers
▁something
▁letters
▁Due
▁subs
iques
▁Islands
▁tells
▁dim
▁talk
MS
clus
▁rain
▁Beach
▁historic
iary
▁ox
ugby
▁Bell
inem
▁derived
▁Univers
ender
▁Gall
aven
▁audience
▁Justice
▁library
▁Hun
▁occupied
ker
▁Jews
haps
▁bought
▁Enter
phas
iling
kee
▁spect
▁advert
▁basic
▁cho
An
▁functions
worth
▁materials
▁inspired
bourne
kes
▁vehicles
yes
▁ven
▁sets
▁decre
lar
▁sevent
ennis
▁comedy
igen
▁hab
▁Berlin
▁Hong
▁CE
18
▁Chap
▁2019,
chestra
45
▁makeup
HL
▁doub
bu
rip
ella
bro
▁voc
▁Dani
▁creating
udget
▁Child
ila
▁eld
▁unable
▁Pers
yard
▁copies
▁inhabit
▁virt
iat
▁fields
▁Brig
▁Guard
▁refers
▁1993
▁wall
▁assistant
▁mis
▁DVD
▁Special
CO
▁constitution
▁Naz
unte
▁Base
▁god
century
text
▁incorporated
▁advant
▁Mike
▁online
▁Health
▁girl
yer
▁want
▁morning
amm
▁chain
▁Rod
omew
▁rural
▁quant
▁scientific
ropical
▁hero
▁politics
▁Americans
▁participated
▁sle
▁alternative
▁exchange
▁Ven
▁bul
▁enjoy
▁Captain
▁Library
▁!
▁rang
▁Pop
▁enemy
aks
▁preserv
ancing
▁matter
▁signal
▁singles
▁broke
abb
pot
▁proceed
▁Ford
▁mind
▁daily
eral
▁2008.
▁basketball
▁Ken
awn
oz
▁Elect
also
▁districts
▁pair
osis
AR
▁visited
▁avoid
ilton
▁actions
▁silver
▁Ba
▁couples
▁obtained
▁piece
emetery
▁Band
▁1920
▁adapt
▁negot
▁reports
▁Argent
▁goes
▁Today
▁Santa
▁burn
▁principal
▁consec
itzer
▁influenced
▁List
itors
▁Ep
▁rear
▁tim
▁flood
▁attrib
ira
bra
▁Sher
▁authorities
▁Orig
▁earth
ja
▁neighborhood
eller
uing
room
▁samp
▁proved
▁ast
▁poverty
tra
▁injury
▁illust
▁ways
omot
▁protection
nce
cont
alion
inson
▁lake
gn
▁attacked
▁constitu
car
▁advanced
lines
zer
▁holds
▁Bh
▁Nether
ption
inder
▁Hospital
▁respond
▁Night
▁fought
▁Rom
▁Cub
▁nuclear
▁Province
▁hall
▁onto
▁bott
▁lear
▁Forest
▁1940
▁formerly
▁Marsh
▁Stadium
▁nominated
▁fleet
pet
▁premi
▁shared
▁valley
rum
▁narrow
uer
▁rough
▁spot
▁write
▁beyond
ims
▁hydro
▁Thus
agement
▁accident
▁bands
▁approved
▁heavily
▁lands
oured
▁safety
▁administrative
arc
▁returning
▁syn
▁Independ
ographic
▁professor
icine
▁yards
uation
▁Rel
▁vehicle
▁(197
eg
uts
hedral
▁worldwide
▁arts
▁festival
inus
▁notes
▁scoring
▁hun
▁Open
▁9,
hire
▁14,
▁bill
▁Hay
▁1991
lig
▁16,
▁sought
▁Turk
▁Though
ternal
▁lot
mann
ruit
ouri
▁trees
▁ring
▁Police
▁cert
▁sons
uate
▁contained
▁extrem
▁speech
▁slightly
▁Rh
aug
▁aired
▁brothers
▁emphas
▁Gree
ighth
▁restaur
▁Addition
▁Die
▁wing
▁80
▁Hispan
urches
▁critics
▁2010.
▁Commun
▁cod
▁Li
▁equal
▁Swedish
▁publication
▁Area
▁horse
▁encoura
▁rise
▁Home
▁2005.
▁Bab
▁UN
ading
▁Steve
▁convers
▁shortly
▁Olympic
▁converted
▁2009.
▁guest
▁birds
17
▁vocal
▁Bir
stream
▁decades
▁ultimately
▁prefer
▁Sports
rec
▁Time
▁awards
▁Abb
▁performing
AT
▁weapons
owntown
han
ava
▁begin
iy
▁rob
!"
▁Es
king
▁teaching
▁Lar
▁failure
▁compar
▁Further
▁ethnic
▁setting
▁alt
under
▁iron
▁Program
▁argued
track
▁paint
▁existence
▁Minn
▁drama
asy
▁13,
-4
▁formal
▁regarded
▁Sweden
▁ending
uled
▁Nations
▁reviews
▁Us
▁Inst
▁determined
▁permanent
elve
▁17,
fam
▁reasons
vest
▁Oxford
▁Ok
SP
▁wealth
rog
▁straight
▁Between
▁Championships
▁Pakistan
lywood
▁theatre
▁Arthur
sey
▁application
▁gar
▁Ur
▁Sus
▁Uk
▁crim
▁Stephen
▁Tam
ois
ears
▁tower
idge
▁chairman
otic
▁maximum
umes
erse
▁rival
oln
▁End
▁villages
▁detect
▁carry
▁Taylor
▁toward
▁storm
▁sac
▁consisted
▁baseball
▁rein
▁believe
ucky
▁Bishop
▁maintained
▁volume
▁Community
▁Bor
mouth
▁deliver
▁passes
▁thir
olished
▁Mic
▁reign
rees
▁confirmed
▁178
▁Davis
riz
▁teacher
▁resources
▁Lim
▁quite
▁Cop
▁prepar
urer
▁strength
▁challen
▁load
▁spok
▁seg
▁Mir
65
▁Kir
▁equival
▁stream
▁25,
▁needs
▁householder
▁actress
▁independence
▁legend
▁merged
ulate
▁abandoned
ulpt
▁reflect
OS
load
▁contributed
igration
▁harm
▁Jon
ashion
▁acts
▁entirely
▁politician
▁Chris
▁containing
▁Netherlands
▁commander
▁Press
▁institutions
ba
▁deploy
ennes
▁8.
▁covers
onym
▁belief
western
heim
lan
former
▁resc
EC
ologist
▁1999,
▁symbol
roll
▁crime
▁Earl
▁ends
▁religion
ji
da
▁Nap
▁internal
▁Mov
▁calls
▁engines
▁Tal
▁Represent
▁conference
itche
bell
aded
book
▁inhabitants
▁Offic
iments
MA
▁Gen
▁trust
▁opp
▁greatest
iki
35
▁Dam
▁occurs
▁association
▁ideas
▁sector
▁agent
▁Han
▁heard
▁committee
▁mount
eman
amin
▁Lady
uccess
▁partner
▁identity
rat
▁Int
pool
▁Light
▁Development
▁unknown
▁sand
▁earliest
▁properties
poses
▁dang
▁connection
▁values
fully
▁Alf
▁cancer
▁Colon
gro
▁expressed
pret
▁exclus
▁von
▁generation
life
organ
entially
▁Korea
▁price
▁scale
▁swe
▁learning
utation
▁Stand
▁Hart
▁domestic
▁Spring
▁pieces
▁background
bar
rowd
▁MP
▁temple
▁guns
▁Constitution
▁arrested
▁Batt
▁(4
after
▁comic
▁engineering
▁synt
ipe
osa
▁1989
▁Channel
ES
▁winner
▁structures
▁20,
▁nob
▁champion
▁contest
▁2011.
▁Kel
▁possess
▁founder
▁USA
▁Lewis
▁Pass
▁height
▁exact
▁passing
▁limit
▁1988
▁Power
▁Est
▁Holy
▁Even
erick
▁closely
▁railroad
▁easily
uration
▁Bang
▁operate
▁acid
▁finish
▁kil
arp
▁developing
▁folk
▁global
▁cru
▁standards
▁AD
isf
▁Fire
una
▁bit
▁Indust
ez
▁Born
▁successfully
hand
▁auth
▁plot
engers
isms
64
▁beaut
▁causes
▁shape
eed
▁vent
▁70
▁poly
order
It
▁occas
idae
▁defense
▁bra
▁actual
▁doing
tered
án
illing
▁classical
▁mayor
▁retirement
▁Short
▁castle
▁causing
▁offices
▁locations
ulty
oes
▁Philip
▁2019
▁Christmas
incoln
aming
▁drum
▁Master
▁Bla
De
fall
▁observed
ses
mes
▁pup
▁Bol
▁suburb
▁voted
▁choice
▁Pope
▁advance
rin
prise
▁Nic
sen
▁Tony
▁escape
▁orders
▁Brother
▁Manchester
▁Ak
▁receiving
▁briefly
appe
atures
▁your
▁Greg
▁glass
oly
▁Hal
▁alleged
▁sixth
puty
wick
acent
▁Mun
▁invasion
while
▁paralle
ctors
▁passenger
▁multi
▁steel
▁Media
▁negative
▁genus
▁Balt
▁Hispanic
▁controlled
char
▁budget
▁holding
▁somew
lyn
▁improved
▁mel
▁lyrics
including
▁islands
▁architecture
▁phase
ivals
▁Aff
▁reduce
▁pilot
erts
▁importance
▁ruled
▁opposite
▁Color
▁mathemat
equ
▁supporting
outs
▁Anton
▁substant
▁300
▁examples
▁funding
▁aid
▁Gh
▁ax
▁Queens
▁Six
anning
▁Bru
▁specifically
▁Upon
▁Att
urance
esota
▁roads
We
▁producing
▁tor
▁Pit
▁homes
▁founding
▁Then
place
▁micro
uese
▁Ross
▁flu
odox
▁Som
▁institution
▁Baron
▁History
▁cas
▁Wars
▁operates
▁Golden
▁Organ
▁Stone
▁ancest
▁stores
▁nick
aret
▁exerc
▁guard
▁Command
▁opin
▁laid
▁cry
iversary
▁chemical
▁Fame
▁programme
▁strip
PA
▁animal
▁Jer
▁planning
▁commissioned
position
rete
▁21,
Un
▁Lincoln
▁Po
▁Walk
▁entertain
▁transform
▁repeated
▁22,
▁90
▁Labour
▁core
ilation
▁behavior
ctoral
▁routes
▁objects
▁Bad
zech
▁wor
▁Circ
LA
akh
po
▁sculpt
▁Francis
▁Ger
▁vary
▁athlet
▁Memorial
pson
▁Minnesota
▁Sunday
weight
nds
▁accompan
▁coord
▁notably
▁Sav
▁1987
▁technical
▁tail
ici
▁incident
opher
▁30,
Star
▁Ta
▁fiction
▁versus
▁)
▁try
▁Premier
▁van
▁Professor
▁describes
▁literary
▁NFL
DS
▁conqu
▁grade
▁introduction
iders
illery
▁sole
▁typical
lets
▁Prot
enna
▁Lind
▁Intern
▁1998,
pir
▁edge
–18
▁trying
▁applications
▁hired
▁techniques
▁Regiment
▁Human
inth
▁sequence
▁2004.
▁funds
▁corner
▁promotion
▁regarding
▁177
cell
▁Wat
then
▁consequ
▁reaching
▁diam
▁combination
aved
▁advantage
="
▁Daniel
▁Marg
▁finds
PS
▁Squad
▁Ministry
▁Les
▁resistance
agan
▁Prior
▁Free
▁Dor
▁1984
▁trav
▁mole
▁jur
▁1986
▁Point
▁19,
risis
▁agricultural
uther
▁2012.
▁request
▁10.
FC
▁adap
inally
▁Raj
▁36
▁Tai
▁businesses
▁focused
ronze
▁motion
▁starring
▁sell
000.
▁IV
▁herself
▁faith
ieval
▁consisting
▁Serb
Don
▁hour
▁Ball
▁starred
▁scenes
▁popularity
ée
▁painting
anes
▁installed
▁Administ
des
▁Bat
▁revolution
▁yellow
hist
▁Portuguese
je
▁adjacent
▁9.
osed
▁views
mad
▁resigned
restling
▁33
▁seems
▁reaction
▁improve
apore
writer
▁costs
▁walls
▁habit
22
▁Czech
▁Form
▁extension
▁ones
rine
▁Leon
lain
▁establishment
icy
▁dipl
▁23,
▁Vi
long
▁exped
▁Hu
iny
atal
antic
wich
▁sale
▁pul
▁Hou
▁moment
oster
▁attract
ushed
▁writers
▁competed
▁task
▁map
▁rejected
▁northeast
▁bodies
▁Korean
▁convent
ducing
▁Stock
▁mm
▁possibly
vant
▁Vietnam
▁weather
olt
ader
▁Pier
▁Only
▁purposes
gor
usal
▁rebu
▁girls
▁Const
▁Kansas
▁accur
lock
Sp
Man
▁Anth
▁recognition
ceived
▁locomot
▁sty
aska
▁decade
▁environmental
come
IC
▁Tar
DP
▁Latino
▁documentary
alo
▁racing
▁affected
who
▁merch
▁device
▁reading
▁divers
▁Rang
Bill
run
▁28,
▁Cab
Se
urric
68
▁Gre
▁mist
▁partnership
▁degrees
▁rom
▁pros
▁Maria
▁heat
iants
ensions
▁Su
olis
▁arrang
icks
star
▁Tok
friend
▁Ob
owned
▁engaged
cow
anna
▁Once
▁Melbourne
▁Treat
ienced
▁Hard
▁Stat
▁Ocean
▁Liberal
▁Gi
point
▁driver
▁Harry
▁dress
▁articles
▁twelve
▁impr
▁strike
cious
anton
▁install
▁nor
▁Rac
▁franch
▁Jesus
▁presidential
thodox
yo
▁churches
▁factors
dd
▁sust
▁opera
ains
▁corpor
▁faced
▁educational
▁leads
zen
eler
▁dates
SR
▁shut
▁humans
▁waters
aki
▁26,
▁favour
▁extremely
▁Early
▁1985
acter
▁statement
▁interpret
▁Singapore
▁Dougl
▁instance
▁playoff
▁Television
▁Labor
▁Howard
▁opportunity
▁armed
▁grounds
orney
families
▁designs
▁Bon
▁watch
▁Gord
▁Marine
urday
▁subsid
▁philosophy
▁SR
▁sections
24
don
▁1983
enz
▁Prize
▁items
▁factory
▁fresh
▁dry
▁appoint
▁significantly
▁uniform
sky
▁strateg
▁perhaps
▁27,
actions
▁entry
▁Miller
▁Norway
▁resemb
▁bond
▁killing
▁crown
▁Zh
▁Hamilton
night
▁Der
▁promote
▁difference
▁crowd
▁Ah
orph
▁medium
▁Project
▁equivalent
▁Railroad
▁patients
▁musicians
▁ceremony
▁analy
▁Hollywood
▁aged
▁1997,
▁poetry
▁flat
▁survived
▁Austria
▁Turn
▁Square
6),
▁theore
1),
▁Transport
rome
-5
He
▁Cas
▁myth
▁Business
▁employees
▁purchase
▁calc
95
▁northwest
▁consult
▁susp
▁retained
▁remark
▁concluded
▁advent
▁1996,
iful
▁nothing
tainment
▁visual
ami
▁regularly
▁Econom
rons
▁Web
▁solid
▁hotel
▁phen
▁Mexican
▁2013.
▁circum
▁stands
▁Whit
▁NY
▁1982
▁Missouri
▁chose
▁ille
▁Swiss
▁proced
▁descript
coh
aria
ommod
▁copy
▁really
▁Trust
▁correct
▁differences
▁Lt
▁AM
urd
▁FI
▁Country
▁goods
▁stating
67
miral
▁ment
▁Roy
▁violence
active
▁consecutive
iang
▁Cape
▁Jacob
▁Ron
▁sun
▁wave
]]
▁Technology
itzerland
-20
gency
dale
TC
▁lat
▁(17
▁Lo
ais
▁Disney
▁licens
▁Sab
▁interests
▁composer
62
▁McG
▁fashion
lusion
anned
▁scheduled
▁passengers
▁1919
term
▁entrance
▁Ell
▁survey
ennessee
▁hair
▁lect
▁400
asters
▁invited
▁separated
▁fram
roit
▁38
▁skills
going
fe
▁benef
father
▁Oak
▁volunte
▁34
▁Khan
rm
▁synd
▁ec
iel
▁select
rix
▁Males
aver
▁Gil
▁candidates
ova
amic
▁1900
▁requires
US
▁Quebec
▁Rose
▁unus
▁representing
ructure
▁cold
▁dismiss
▁check
▁Low
▁brain
▁Nick
orage
▁tall
ieties
▁broken
▁suggests
insula
mb
▁Ast
32
ogen
icide
idden
icians
▁Gram
▁Hills
▁personnel
▁Switzerland
▁relative
9),
▁assumed
38
▁Sem
▁credited
▁why
▁Region
▁bottom
▁Islamic
▁Bowl
▁user
anguage
▁shall
▁accused
▁Imperial
▁Temple
▁factor
▁Simon
▁registered
▁downtown
▁witness
▁calling
3),
pur
▁eye
unnel
▁kingdom
▁Cambridge
▁ign
ito
▁Space
▁accommod
▁Barb
▁courses
▁2003.
▁selection
ocese
▁Cra
▁thousands
▁Naval
athan
▁Brian
▁san
▁page
▁boat
▁Down
▁loan
▁clean
▁1974
▁Bush
▁Cult
▁Now
▁distributed
▁Marc
▁Ho
▁rich
▁Tennessee
▁nickn
▁duty
pse
▁29,
iner
ori
▁44
apes
▁getting
▁fixed
▁poll
37
inking
▁singing
box
▁Ot
▁Ut
▁2000.
▁Burn
▁indu
▁output
hetic
▁selling
▁otherwise
▁constant
iable
▁(,
▁Maryland
▁severe
▁prime
▁Front
▁impress
▁collected
▁worth
▁row
▁electronic
owa
▁standing
▁exception
▁appropri
▁hits
▁historian
▁carbon
▁Douglas
▁Moscow
▁Armen
▁charges
▁steam
▁foundation
▁draft
▁drawn
▁Greece
▁criminal
▁Colorado
ules
▁roof
▁boys
▁investigation
▁transition
▁divor
▁isol
▁capita
▁courts
▁Bos
▁cricket
▁1979
ghan
▁hill
▁Federation
▁Frederick
▁judge
▁immigr
▁FM
ogy
DA
▁classic
▁egg
▁Dick
▁Init
ourney
▁stret
▁gall
▁ban
▁Bou
▁starts
▁novels
▁Hug
▁persons
▁Gib
▁mand
▁Author
▁emot
▁freedom
level
▁charged
▁Ts
related
ologies
Sc
▁door
▁decor
▁increasingly
▁$4
agh
▁feed
▁experienced
▁Military
unch
▁users
▁fan
▁Athlet
▁vir
▁hockey
▁attached
▁Kal
▁Additionally
▁capable
▁Wall
▁flying
heastern
▁naval
oto
racy
▁Plan
-8
▁delay
▁cool
Billboard
▁capture
▁restored
▁pione
▁2014.
▁Walter
▁1995,
▁1972
wealth
ivered
▁definition
▁vo
hesis
▁Nich
▁PC
rations
▁Historic
▁rates
▁Internet
▁context
▁unsuccess
▁ABC
▁solution
▁clin
▁Indiana
from
▁Pot
▁Diego
ho
▁technique
▁duties
▁preced
▁undert
▁64
▁successor
▁sort
▁jazz
▁cycle
▁(;
▁finishing
avig
▁zone
Re
▁policies
▁util
▁Kim
▁arrival
▁driving
▁somewhat
othing
atically
▁fict
▁DC
▁Du
▁Allen
ardens
▁category
▁considerable
agues
ifications
elle
▁criticized
Is
unications
AM
▁Alb
▁universities
▁borough
▁[[
▁doll
▁save
▁learned
▁roll
▁fired
obe
▁fine
pective
▁Prin
27
▁inaug
▁roughly
▁intelligence
ublin
La
▁Anderson
▁vice
▁recon
▁didn
such
▁biggest
▁Bi
▁satell
▁interior
▁frequency
▁admitted
▁retail
▁Stra
▁commit
▁damaged
▁reputation
ques
▁southeast
ER
ateur
▁residential
▁1968
▁Mississ
▁components
▁trained
▁accompanied
▁Az
▁determine
▁Rand
aine
▁Well
▁liqu
ii
▁neighbour
▁reality
▁stopped
idel
laimed
▁ur
▁weak
▁showing
▁Doctor
▁images
▁provincial
▁pron
▁Slov
comm
▁declined
▁assess
ecutive
▁assault
▁colonial
▁stress
vements
borough
▁devices
▁involving
▁37
–9
▁renov
▁metres
etime
regon
▁1978
▁turns
▁1981
▁Moh
ture
▁parallel
▁trip
▁delivered
heme
▁1976
▁chance
▁aer
▁Houston
▁cooper
igenous
▁composition
▁vocals
▁aware
▁Detroit
▁Junior
28
▁anniversary
▁committed
ailed
▁absor
▁Age
▁mouth
▁Adam
▁1994,
▁adapted
▁looking
mers
▁upd
▁Mean
ocks
icial
wegian
TS
▁owners
▁batter
gery
▁Confeder
aph
▁tick
▁dynasty
▁wins
▁neut
34
▁swim
▁2015.
ippi
umin
issance
▁membership
▁diplom
▁shel
▁Domin
▁plane
▁prepared
▁thick
▁150
▁Var
▁medieval
iva
▁resign
▁residence
▁Forces
chang
▁Jos
▁landsc
pers
▁Lieutenant
▁Unlike
▁southwest
cts
▁headed
isd
▁Sum
▁Heart
cop
▁instruments
▁(195
▁caught
mosp
▁Ten
▁joining
▁initi
▁documents
▁crossing
where
▁streets
▁inher
▁stood
gon
▁1975
▁educated
▁Anne
▁graduate
200
▁Bah
▁linked
▁Philippines
resents
▁veget
▁manner
▁Modern
▁legislation
▁Connect
▁subjects
▁12.
▁Turkish
called
▁ham
ooth
anth
▁fly
onsin
▁Dur
eries
rele
aga
▁understanding
▁Moore
▁Crown
▁superv
stances
▁heads
▁celebrated
▁occasionally
kh
▁web
▁mort
▁advoc
▁Medical
isconsin
burn
▁AC
▁Live
olas
▁2002.
avalry
▁deleg
▁details
▁Eth
uous
▁fer
▁Id
▁alcoh
▁Ottoman
▁bed
▁influential
▁Writ
▁aspects
▁ownership
adow
▁2001.
▁Gulf
▁stages
▁grant
xts
▁replacement
▁decline
▁franchise
▁carrying
aby
aked
▁Pear
▁Kentucky
▁tur
▁(5
uster
▁buy
ogether
onder
▁option
▁Ra
▁Wolf
▁Oregon
▁compris
▁supposed
▁snow
▁cards
▁Clin
▁representative
▁doctor
zo
▁note
▁1977
▁throw
▁plate
rator
enny
oming
▁CBS
▁modified
eless
▁encounter
igg
▁Conc
▁seconds
▁EP
▁Aud
▁explos
▁refuge
▁represents
▁Let
▁Conservative
▁divisions
▁responsibility
bound
ographer
iami
▁trail
rolled
▁Squadron
▁greatly
pat
▁Wy
▁expression
▁Commonwealth
▁Indones
▁ere
▁Entertainment
▁profession
div
▁scheme
▁Building
▁criticism
▁Prim
▁piano
ucks
▁64,
▁Stew
▁bran
▁agency
▁returns
▁translated
▁react
▁debate
▁pitch
▁warm
▁depending
▁11.
▁compete
inction
▁sufficient
▁Sound
▁ahead
▁Legisl
▁participate
▁poem
ilst
tery
▁Municip
uv
▁Ker
▁Belg
phone
lected
▁Wisconsin
▁Metropolitan
▁communication
▁strongly
ridges
▁planet
▁boundary
odge
▁Medal
vens
▁ensure
▁enh
▁Here
▁Roc
▁Saturday
▁fishing
▁controversial
▁achieve
▁Alan
▁Winter
▁1973
▁Cemetery
▁Express
season
▁Gordon
▁44,
oral
▁flo
Ne
▁ri
abled
▁sed
▁Journal
▁ago
▁1967
▁Family
▁31,
▁dialect
▁rivers
▁hors
▁Mand
▁diagn
▁phr
rac
▁Village
▁surre
▁picture
▁Patrick
ikh
▁hosts
▁Kennedy
▁wheel
▁Norwegian
▁Finn
FM
▁Silver
▁Orthodox
▁markets
▁Security
▁concerns
▁skin
▁appearing
▁NBC
▁injured
▁Mas
85
▁journalist
▁crop
▁translation
elsh
▁Samuel
town
▁protest
▁Jane
▁Hawai
▁eyes
▁Croat
arsh
▁existed
▁Kat
▁Micro
▁effectively
fl
▁guitarist
▁vert
▁filled
▁Sciences
▁Liver
ellect
▁banks
▁Foreign
▁Staff
▁requirements
▁reun
▁authors
hyth
":
angel
lahoma
▁2016.
oli
▁visitors
▁Services
▁Ren
▁touchdown
▁rapidly
▁ped
▁Studies
▁evolution
▁Palace
ré
▁soil
▁1992,
▁kid
▁rooms
▁measures
▁Vice
▁Lin
▁recordings
▁veter
enh
▁Grant
▁Malays
▁Lanc
▁fit
▁junior
pa
imens
▁perfect
▁colour
▁huge
inners
ogan
orrow
emor
▁Harris
▁FC
▁adding
▁classified
oyd
"-
▁submar
rizona
▁alleg
ounce
▁Infantry
▁landing
▁Dublin
sm
?"
▁Broadway
▁Farm
▁Lis
▁Eric
▁praised
▁describe
▁recip
▁tropical
▁Operation
▁terror
▁Ret
▁offering
▁disappe
▁practices
▁1969
▁interested
iller
▁protein
crib
▁Brun
allas
▁accompl
▁NA
▁exists
▁credit
ti
agu
▁ble
▁Trib
▁formally
tenance
▁restrict
▁kilomet
69
▁prohib
▁soundtrack
Be
ordan
▁gender
▁message
▁testing
▁wides
poss
▁speak
▁opinion
ão
▁Regional
vo
▁202
inations
My
oen
cles
▁Communist
▁Vis
▁Hockey
▁rent
▁questions
▁normally
▁kick
▁teen
▁Mountains
▁battles
▁1993,
▁assass
▁coverage
▁benefit
▁counties
▁spoken
▁fra
▁useful
▁teachers
▁DNA
▁grown
▁Roger
tic
▁innov
amps
▁Mississippi
▁prompt
▁Dave
▁defensive
▁session
ads
ked
▁cable
▁controversy
icut
▁evening
▁engineer
▁rend
▁coastal
udden
achelor
▁Brand
▁Treaty
▁reserve
▁processes
▁dies
▁turb
▁Real
▁regiment
▁Montreal
ika
▁protected
▁Affairs
▁spiritual
▁Rem
rently
▁manufacturing
▁explained
▁1971
▁Cow
▁Fleet
▁depth
▁renew
▁Ka
▁Sel
▁Third
▁pool
iac
▁forming
▁whereas
pen
▁Palest
▁anth
▁safe
:00
▁mountains
▁seventh
▁movements
▁Dal
▁1990,
▁nations
olph
ci
▁Executive
▁Upper
▁paintings
▁Lane
▁jurisd
▁fictional
veland
▁Moon
▁archae
▁1964
atters
▁Schools
imore
▁residing
▁expedition
di
▁astron
▁crisis
▁Final
ello
▁atmosp
rant
▁Windows
▁accounts
▁Phill
▁lasted
▁Lawrence
▁1991,
but
▁proport
▁imprison
iga
▁Arizona
aren
IT
▁constituency
▁circuit
▁Bart
▁expect
▁Pitts
▁Hit
▁Lyn
▁actors
▁flows
▁shif
▁cinem
▁arranged
▁Iron
▁tact
▁dating
▁Whe
▁Roberts
▁massive
acher
▁stayed
rapy
▁Las
▁garden
aro
ocracy
39
lov
▁Pict
▁Hotel
▁wounded
amental
▁fear
▁frag
▁Hamp
▁Protest
oslav
▁imag
▁depos
▁cous
▁Gab
▁Oklahoma
▁recru
pread
▁Kings
▁Miami
You
▁borders
▁Anthony
iece
▁Ga
cription
▁Week
inding
▁investment
eland
▁weekly
atern
▁Ni
▁brown
▁Brigade
▁assistance
theless
47
▁ratio
▁42
▁strate
▁Unt
▁fal
▁contra
▁Convention
▁rating
erted
▁strategy
▁Liverpool
▁mining
▁FA
ui
▁Instead
All
coming
48
RC
▁Mayor
▁Buck
▁contributions
▁Buff
▁Broadcast
▁Fa
utor
▁Turkey
▁Cleveland
▁gang
66
hered
▁plus
enses
uerto
▁struck
olly
▁mode
▁cited
▁Review
▁Da
▁convention
▁Territ
gressive
▁Ali
▁Jam
▁Meanwhile
▁die
▁Hans
▁Five
ector
chen
door
hess
essions
▁scholar
▁raise
▁painted
aining
▁Originally
BI
▁Eag
▁Ark
▁Magazine
100
5,000
ragon
▁Pow
▁temporary
▁Such
▁expos
bridge
rice
▁gets
▁prisoners
▁entering
har
top
▁2017.
osm
▁filmed
▁switch
▁Welsh
▁Cooper
intend
▁portrayed
grade
later
▁Ern
▁charts
▁replacing
▁shell
HS
▁Juan
bal
IV
III
aux
▁visible
▁proposal
▁storage
▁covering
rav
▁(),
itable
aired
▁Matthew
elson
▁Sky
▁Afghan
▁penal
ilit
-0
▁Norman
▁satisf
dam
PC
eline
2),
eas
▁falls
▁Garden
▁Bry
hr
ication
aware
▁gradually
uma
▁mir
▁none
antasy
▁grass
mat
▁Ban
▁withdraw
die
▁Local
▁Lang
Pro
▁populations
▁75
hips
xual
▁shore
▁portra
annels
▁cycl
inter
▁publishing
raf
ographical
▁adopt
▁recre
▁changing
▁occupation
▁catch
33
▁tribes
▁remember
▁Album
▁Key
eping
hol
▁amend
▁annually
raine
▁Bruce
▁surf
▁Beat
▁transportation
▁anything
▁39
▁minimum
▁construct
▁rose
▁surrounded
lins
▁murd
▁tests
ür
▁bronze
inch
▁Israeli
▁Denmark
▁Puerto
do
ooking
▁file
▁Sym
▁hang
▁widespread
▁completion
▁Run
▁Rol
▁secure
▁1965
▁Canal
ocol
▁affairs
▁Atlanta
▁transmission
▁tries
▁moder
▁Back
inian
▁rif
▁Beng
spec
▁extent
▁WW
▁Russell
▁Danish
▁bringing
▁Ku
▁longest
▁branches
▁audio
▁Connecticut
eenth
▁Administration
din
▁x
▁Yan
▁treated
▁settlers
▁attracted
""
▁surviving
▁periods
▁48
▁McK
▁Within
▁pray
▁Germans
▁Nazi
▁understand
▁Commander
▁musician
▁Children
urricane
▁weeke
uscript
▁1966
▁Independent
▁vast
▁challenge
▁phenomen
▁CDP
▁weapon
▁offensive
▁pure
▁continuing
cknow
▁Orchestra
▁Louisiana
▁Franklin
▁equipped
Mar
▁shares
▁theater
▁vessels
▁wick
mod
▁Hindu
SC
▁territories
▁Mach
uters
unes
ante
▁apparently
▁secretary
▁losses
host
▁intersection
▁hundreds
▁adaptation
ignment
▁finding
icop
▁+
igious
▁knew
▁yield
ingly
▁arc
▁Stewart
▁intellect
▁1999.
▁recommended
▁meets
▁ru
▁unusual
▁Care
▁Adams
apolis
iley
omic
ported
▁segment
▁faculty
asure
▁teach
▁appeal
ista
found
▁wars
labama
▁commemor
▁emerged
▁displa
▁negoti
▁missing
▁remainder
▁organisation
▁Pur
archy
▁frequent
edding
▁Fellow
▁bes
fare
▁genre
▁denied
IP
▁infantry
▁indicate
▁suspend
▁drew
▁frame
▁Management
▁Tan
▁acknow
ologists
▁gene
▁indicated
▁Battalion
phony
▁refere
▁Jordan
4),
▁bishop
▁Rick
▁Indians
▁exhibition
▁See
▁colony
mingham
▁49
▁fled
-7
plicit
aron
▁eval
▁Iowa
–8
▁Engineering
▁passage
▁175
▁electron
▁Jay
▁prede
▁2018.
ibl
otype
▁Studios
▁Baltimore
▁gather
▁Nob
wen
ivated
dr
▁Member
▁priest
soft
pes
▁Never
▁begun
▁string
▁external
▁Brothers
▁Margaret
▁trading
oa
▁Heb
▁photograph
Cl
▁filed
▁liberal
▁Reserve
▁knock
▁maintenance
▁1989,
▁throne
▁distinguished
rastructure
▁license
roke
attan
ester
▁recept
▁wine
▁attributed
.'
▁mobile
▁Representatives
▁journey
ranean
▁thin
▁artillery
ashed
▁valid
▁Baseball
▁Belgium
asts
▁experiences
▁Harvard
istical
▁medicine
usted
▁13.
SS
▁Meth
▁Abd
▁Similar
▁proc
▁Portugal
astery
▁collaboration
▁Dark
▁camera
▁easy
▁supporters
▁executed
Bl
▁vision
▁Cook
▁Son
▁Prix
▁Until
▁Fund
▁Metro
▁shooting
▁bear
▁Hungary
iege
acc
▁PA
BM
▁print
▁anch
agen
▁Rights
▁Along
–200
▁happened
sch
▁mob
▁debuted
–7
▁mental
election
▁prosec
▁"",
▁Cru
▁printed
▁Seattle
▁transmit
erg
olds
ultan
▁brig
▁Taiwan
–3
▁Sri
▁assemb
▁Alexand
▁1945
▁Colonel
▁departure
▁conservative
▁Mrs
▁Arn
▁strict
adi
ushing
▁concerned
▁Peace
▁Edin
otte
▁excess
hard
mate
▁Dig
▁compl
▁discont
▁occasions
▁Inn
▁param
▁missions
▁Argentina
▁inner
lington
hus
▁viewed
▁Alabama
▁Bible
ET
mentary
▁beach
▁municipalities
icon
▁percentage
▁underground
▁predomin
▁Nik
▁defence
▁climb
anks
29
▁ori
▁representation
▁Morgan
▁Authority
▁turning
▁NHL
▁lov
▁Stanley
▁component
uzz
▁Austrian
▁Dream
orous
▁repro
▁Nort
▁Constant
▁compilation
▁Kevin
ners
iciency
▁involvement
atur
▁mine
IN
▁Laure
▁Your
▁approval
CAA
▁Tel
▁wooden
▁childhood
ultane
▁releg
▁Hell
▁Lam
edia
▁Hop
▁satellite
▁defeating
▁Cost
▁Admiral
stic
▁Disc
▁Crit
zh
▁enjoyed
▁patrol
▁Ever
▁Birmingham
person
)"
▁wrong
ishment
▁Boys
▁intention
▁Beck
▁destruction
▁encouraged
63
General
▁tied
uble
▁fruit
▁immediate
▁daughters
▁unf
cular
▁Event
utt
pha
▁governments
▁channels
ithuan
▁Senator
▁agriculture
lap
▁manuscript
21
▁Ale
bishop
▁styles
▁predecess
▁Dallas
▁principle
▁newspapers
▁networks
▁Kelly
▁Pittsburgh
race
▁broadcasting
ricted
▁Tower
ework
▁Alfred
▁dominated
▁nom
▁emergency
anny
oples
oses
▁Edinburgh
▁substantial
▁1998.
▁sudden
▁spoke
▁thing
▁Every
▁NBA
rell
▁tell
▁instrumental
▁gone
▁helping
▁Lower
vi
▁rugby
▁relief
▁movies
issue
▁supplies
▁challeng
▁Morris
▁centers
▁dual
▁Shortly
rehens
ardo
otes
jo
▁Alliance
ifer
▁justice
▁terminal
▁characteristics
iest
abilities
isition
▁entertainment
▁absence
▁SS
▁chair
▁peaked
▁tools
▁tempor
▁Dyn
▁exceed
ige
▁Donald
only
▁discovery
▁extreme
aste
emen
lie
▁Fal
▁Gran
aints
▁Apple
▁Ltd
▁excell
▁Yug
▁Kr
hour
▁loyal
▁Non
▁Chairman
▁dub
▁Agency
▁mart
▁concerts
las
▁Nar
▁Sn
▁Gene
▁opportun
bi
▁bat
▁Carter
ithm
▁Ve
power
▁apply
▁Pap
cons
▁Nag
▁swit
▁roots
▁Campbell
tes
▁ceased
▁Ry
▁Bull
cha
gate
▁threatened
▁Antonio
▁myster
▁preserved
▁Colomb
▁Warner
▁agents
hythm
▁temperatures
▁characterized
▁flights
SO
▁Vienna
▁jobs
▁Fac
▁wings
▁Around
lad
▁Walker
▁Ward
▁surn
itals
▁Ryan
▁toured
Ph
▁honour
otton
▁choose
▁window
▁prize
graduate
▁Billy
▁Tokyo
▁holid
▁heritage
▁Place
▁illegal
▁Defense
endar
rage
▁increases
▁worship
▁qualified
LC
▁traditions
leans
obi
aments
▁elder
rett
ía
▁Pa
▁Senior
▁partly
▁Ay
▁memorial
▁tow
▁Queensland
▁14.
▁thousand
▁milit
▁Trad
7),
▁principles
▁suicide
▁injuries
▁releases
▁discip
lac
▁Chart
As
▁pregn
▁Cre
▁involves
irds
▁neither
pop
▁reconst
▁Chile
master
▁horses
▁assembly
osph
▁mounted
▁Thompson
▁limits
-9
▁terminus
8),
jan
▁treaty
ivation
▁input
arant
▁texts
uated
▁truth
▁Mond
▁signs
▁Nash
▁provinces
gun
▁claiming
ext
ruption
▁hypot
▁55
▁appointment
▁dated
wall
▁meters
▁Hand
gow
arth
▁neck
En
▁afterwards
▁deaths
23
▁crash
▁behavi
ouver
▁Manh
▁Peters
▁Glas
▁vic
omes
sea
eneration
This
▁Si
▁surgery
iterranean
▁1997.
▁Marshall
▁domain
folk
▁alcohol
▁superior
▁canc
▁restaurant
▁Dean
iti
▁Finland
▁lists
▁liquid
▁traditionally
▁celeb
▁inse
▁Wright
▁Orleans
▁net
▁chapter
▁Gri
roc
▁Sac
▁themes
▁Bed
anch
ewhere
▁eat
otten
▁Prote
merce
▁Soon
▁Row
▁casual
▁dream
▁advis
▁Ped
▁relationships
▁sympt
▁Cathedral
▁conj
▁Persian
▁blocks
▁send
▁thirty
-18
orus
▁benefits
▁Polit
▁cousin
For
▁nomination
▁eleven
▁processing
▁Princess
▁resort
igrated
atherine
▁Ll
▁theat
▁indigenous
▁victims
▁possibility
orer
▁1963
▁wire
▁spaces
▁publicly
▁writes
▁regime
▁suffering
uits
break
▁amongst
▁Rap
▁traveled
profit
▁everything
▁junction
▁signing
eway
▁publications
▁expensive
▁navig
rock
▁operational
▁edited
▁dominant
▁lawyer
▁partially
▁°
▁manif
▁Honor
▁meetings
▁Beg
▁Maur
▁vide
▁moves
▁detailed
udi
dis
▁advertising
pol
El
ni
▁generated
▁ideal
▁continuous
▁Hungarian
MP
uda
▁produces
61
▁Heritage
▁Na
▁appropriate
▁Much
▁resolution
▁ruling
▁customers
▁Kam
▁papers
▁1962
▁speaking
▁fest
▁Johnny
▁ben
▁Motor
▁Robinson
seud
▁cul
elli
uper
▁Nelson
44
▁nucle
▁invent
▁platforms
▁Frid
▁Comics
▁tribe
▁mathematics
▁Tit
▁drugs
east
rates
▁drawing
▁boats
▁rarely
▁1988,
▁Horn
▁interchange
urers
▁vow
▁whilst
ocratic
bass
▁persu
style
ulating
onian
rose
ifies
ials
▁Design
▁Vinc
ensively
▁Fu
▁1986,
▁Wol
▁driven
▁earn
▁gram
▁Mediterranean
▁Luther
▁Sax
▁electoral
▁$5
▁Patri
▁concrete
▁infrastructure
▁algor
▁chamber
iah
▁remove
▁Richmond
mus
duct
▁integrated
▁deck
oba
▁minute
vy
▁Shah
▁ranks
▁Knight
▁Mission
▁Saf
zant
▁Johann
No
▁Yorkshire
▁rescue
usalem
▁Yugoslav
idency
overe
▁relation
▁Murray
▁Il
▁Death
▁1987,
▁matters
▁stable
▁Jimmy
▁voters
▁classification
▁2019.
▁subst
▁oblig
▁boundaries
bean
ancouver
▁acted
▁Again
▁keeping
▁15.
▁simultane
arks
▁Austin
▁concentration
stal
▁Hend
▁admin
▁Allied
▁rebuilt
ctic
▁Brazilian
▁Carib
▁demolished
▁drummer
▁sight
▁Pas
▁emperor
▁locally
▁producers
▁clearly
▁animated
orf
▁Vik
▁Py
▁intent
▁Hud
▁Cass
osaur
▁Str
▁Barry
itual
▁therm
▁immigrants
▁Brist
▁identify
▁interpre
▁supports
OC
▁merger
boy
▁minority
▁employment
▁enforce
▁electrical
non
▁penalty
▁Therefore
esc
mates
fire
▁marketing
leton
EA
lem
▁closer
abet
▁Set
▁originated
▁Opera
▁Rena
▁Market
▁implemented
ersed
▁Christopher
▁CEO
▁fil
ogs
▁tunnel
▁Fried
▁sees
49
▁operator
):
▁forests
▁desire
▁seed
▁furn
▁adults
▁1996.
▁links
▁innings
▁simpl
▁stim
▁intellectual
-10
ails
iration
▁debt
_1
▁spending
▁convin
▁scientists
▁corporate
umph
▁Hampshire
▁poems
▁Rugby
▁Manhattan
▁opponent
▁unsuccessful
▁credits
▁categories
nex
▁expert
arest
▁wet
▁venue
▁Trail
cribed
▁16.
▁mechanism
▁sentence
Ind
igs
▁machines
▁parliamentary
▁trap
gie
▁Sport
pow
ictions
▁config
▁amateur
▁discontin
▁recovered
▁upgrad
▁cup
▁Graham
GA
▁lob
▁Rub
▁seeking
ygen
lude
▁tack
▁charter
▁colors
▁competitions
▁Chamber
▁description
▁rub
brid
▁monument
▁Bapt
away
▁tenure
Con
ancell
▁experimental
▁suspended
▁belonged
▁patron
oca
▁Officer
▁Advent
–5
▁explo
▁Youth
▁Vancouver
▁opportunities
▁donated
zz
▁Norm
▁vessel
▁volumes
▁struggle
▁cabinet
iveness
▁1948
▁linear
▁imperial
▁Falls
▁hearing
andal
▁reportedly
▁tanks
oons
On
–20
▁auton
body
▁Clinton
▁Kaz
▁agencies
▁evolved
iop
▁artistic
▁keyboard
atin
▁AT
▁ready
tical
scale
▁AP
▁Muslims
▁heir
▁25.
▁circumstances
▁touring
▁practical
▁Pruss
abil
▁phrase
▁What
▁É
▁representatives
▁hip
▁relocated
▁visiting
▁160
▁Fil
▁deployed
▁ocean
▁Throughout
sequently
▁conventional
▁NCAA
▁illness
▁Trade
▁carrier
▁manufactured
▁Method
▁helicop
athy
▁voting
ahn
▁personality
▁patient
▁industries
▁anyone
iliar
▁instru
▁draf
▁elevation
▁Register
▁arrangement
▁hal
▁steps
▁connecting
▁Mong
▁Communications
▁rand
▁preferred
▁essential
▁else
▁civilian
▁bon
▁Ener
rot
abor
▁mechanical
▁erected
ED
▁Fall
▁Brooklyn
▁hunting
▁Students
▁Rain
oom
▁Jerusalem
▁radical
▁Gary
▁balance
▁gate
▁Muham
▁shopping
▁uncle
▁Reform
▁1985,
▁suitable
▁exposed
▁Champions
▁identical
teenth
▁argument
▁dispute
bach
OR
▁eliminated
▁Warren
▁Phys
▁premiered
cut
▁Leban
▁patterns
▁1961
▁dangerous
▁Alban
▁Who
▁Friend
▁47
▁Byzant
▁Mack
itter
itarian
▁CP
mund
▁Dec
iph
▁lose
aton
▁shock
▁displayed
dy
▁descent
▁directors
▁Bernard
-200
▁Sin
Col
▁commanded
▁diverse
▁survive
▁diameter
▁Karl
itud
▁Mans
▁exclusively
▁spin
▁origins
▁tennis
▁Tig
▁picked
fish
acle
rang
▁compens
▁random
▁responded
ét
▁Christianity
▁phone
ilty
▁Protestant
▁Broadcasting
▁subsidiary
▁Seven
▁diver
▁Lithuan
▁fitted
▁participation
ando
▁traded
hill
▁Arabic
▁panel
▁Gor
ocation
▁discussed
lon
align
▁1,000
▁possession
▁aimed
archers
acre
▁ninet
jection
-6
▁falling
▁doct
▁Egyptian
gam
▁slaves
ohn
▁acknowled
▁statue
▁lowest
▁championships
stan
▁competitive
▁cm
ethe
acon
Am
otal
▁Benn
▁dat
▁genetic
avel
▁behalf
▁bot
▁Mitche
▁schedule
▁canal
ser
▁Furthermore
fers
▁Father
ingham
▁Fern
▁bright
▁alliance
36
▁collections
▁Wayne
▁studying
▁corresponding
▁1944
▁landscape
emed
▁1995.
eor
pent
▁squadron
▁Gill
▁palace
▁1956
▁agree
▁Dak
borne
▁Magn
lus
▁escort
▁Harrison
▁Merc
▁usage
▁outer
▁1939
▁golf
▁missed
possible
26
▁Cole
▁Orange
unc
▁Niger
▁41
▁coat
▁advice
▁sponsored
▁assets
▁researchers
▁contribution
▁20.
▁Bristol
rik
▁demonstrated
▁Anna
▁Hitler
▁els
itis
▁fur
lane
▁eighth
▁Initially
▁reven
▁23.
▁underst
▁reduction
▁24.
ometimes
▁rebell
▁wearing
▁Sud
▁Anglo
uri
▁unlike
▁historians
▁José
▁Hold
▁hope
inental
▁22.
▁Sarah
▁beautiful
▁riding
▁gay
▁hyper
estone
ST
onymous
▁eggs
def
▁elsewhere
acks
▁clock
▁ritual
▁bid
ulum
▁Girl
▁Priv
ymn
▁Phoen
▁distinction
ching
▁Celt
▁Standard
▁pull
▁(9
▁Ald
▁revenue
▁settlements
▁migr
▁retreat
▁Cher
ref
asa
▁prices
▁Environment
▁Having
eron
és
tha
▁sessions
▁id
▁Cart
lete
▁Ian
▁Near
▁Mess
▁licensed
▁layer
castle
▁Microsoft
▁1958
▁soul
▁Benj
▁salt
▁repair
▁legs
▁tie
▁root
▁Glasgow
▁ceremon
▁1984,
▁hat
▁Wa
▁Commons
▁champions
▁Vic
▁rising
went
GB
▁surname
▁everyone
mont
▁Food
▁Abbey
▁Od
▁bacter
▁Lib
▁Dead
▁26.
▁1959
▁18.
▁Andy
released
ouses
▁establishing
▁Aqu
rors
ipped
oked
▁moral
AP
▁shift
▁colleges
hum
▁cash
Wh
▁peoples
▁Muhammad
▁Finally
▁false
▁attending
tr
▁codice
▁Eventually
▁decisions
orne
▁1994.
aman
▁;
▁fighter
▁inducted
▁Gallery
▁coff
▁zero
▁ages
ductions
▁circle
rena
▁avo
inating
MC
▁Confederate
▁banned
▁designer
▁essentially
terior
▁absol
▁Conn
oga
▁usual
▁rig
▁jurisdiction
▁efficient
▁competing
▁diet
▁restricted
▁Shan
▁Interstate
ationally
▁disband
▁Rangers
▁Christians
▁camps
▁Bes
▁interpretation
▁thereafter
▁Maj
▁worn
▁Control
uable
ayan
urst
Ad
55
▁1980,
▁exposure
chi
▁Dra
listed
▁publisher
othe
▁notice
▁App
ID
▁fold
▁tort
▁Guy
–4
ivan
▁shops
▁1945,
31
arrier
▁Mes
▁insurance
alog
▁indicates
▁conversion
▁breaking
arked
▁Theater
▁measured
▁UE
▁empt
▁Borough
▁120
▁Baker
▁Equ
▁Mort
▁Ext
▁21.
▁AR
▁affiliate
▁facilit
▁farmers
▁serial
occ
▁17.
▁connections
▁rum
iture
olition
▁horiz
▁170
▁Century
icip
▁coalition
▁provision
▁airline
▁Deputy
▁dismissed
asant
▁congress
▁youngest
▁hence
▁Mitchell
▁landed
▁Afghanistan
arat
▁CO
▁universe
auge
▁crossed
▁Movement
anner
velt
▁communications
reck
▁Gun
uy
▁wat
▁depicted
▁acceler
▁symptoms
▁da
78
▁Mars
▁RAF
▁slowly
▁comed
▁labour
▁elig
▁fundamental
▁Jerry
▁Parker
▁Romania
Mus
icular
▁fat
▁facing
cules
▁rounds
rency
Com
swer
chest
▁Ridge
▁Fel
▁mac
▁variable
elect
porter
▁mines
▁theories
▁Information
▁apartment
▁sentenced
▁27.
▁restoration
▁Marie
▁characteristic
▁1957
▁Wing
▁error
▁lingu
▁FIFA
▁Hudson
▁Hebrew
▁dro
▁Glen
minute
▁strategic
▁Members
▁seeing
▁violent
gregation
▁1946
▁19.
▁parks
▁Years
high
▁1955
▁Benjamin
▁ride
▁Caribbean
▁Charlie
▁commented
▁1942
odore
▁weekend
CD
▁1992.
▁Malaysia
enez
▁regulations
▁vs
▁annex
▁logo
▁Athletic
▁closing
flow
▁jum
▁monitor
▁Universal
▁Ky
▁cavalry
▁Peninsula
▁Ori
▁Flore
▁Ukrain
bel
▁1983,
▁distinctive
▁Pra
▁1941
▁geomet
▁negotiations
ín
angle
feld
encing
▁Defence
▁Buddhist
▁coll
▁Napole
▁swimming
▁orchestra
agre
▁writings
▁extensively
▁1982,
▁Andre
ML
▁(8
▁Monte
▁wealthy
eria
▁Evans
appro
79
olo
▁permission
rehensive
▁friendly
▁Works
▁physics
▁Rud
▁explicit
▁compress
len
itro
▁Energy
▁Finnish
▁clothing
▁references
▁secured
▁Sig
sters
▁discussion
▁Cob
▁clim
▁equation
▁initiated
estyle
▁neutral
acts
▁permitted
▁Ukraine
illo
gi
foot
▁Griff
▁talent
▁Gray
▁bases
▁AI
▁announce
▁windows
▁prest
▁Electric
▁giant
▁Harbor
▁Steel
▁propag
▁index
▁py
▁cattle
▁Greater
▁Training
▁wedding
▁Roose
▁confer
▁DJ
▁tribute
▁hear
▁abuse
▁Jefferson
emic
▁charity
formerly
▁cargo
mediate
▁Jason
▁Those
▁participants
▁Global
▁abroad
harm
she
akia
opes
andy
cient
▁taxes
▁Fr
▁Nord
▁chapel
▁tourist
ften
hu
▁devoted
mi
▁creative
▁600
▁tool
▁Cry
▁Lank
▁alter
rama
▁1947
▁stead
▁Norfolk
Ex
▁Pont
▁Democrats
bb
ixon
▁Ship
▁ranging
▁mainstream
▁Drive
▁Milan
▁sounds
▁coins
olia
▁funded
▁assum
▁studios
▁strengthen
▁1972,
▁influences
▁painter
42
▁Nation
▁marks
▁Comb
▁conven
▁constitutional
▁excav
▁femin
▁Liter
ounsel
▁Wes
▁reveals
▁rid
Can
▁evac
osexual
bus
▁1993.
▁wrest
▁Democrat
bow
▁pursue
▁finals
pm
ancellor
▁flowers
▁conclusion
▁Sid
▁twin
▁Portland
▁accord
▁Agricult
▁Fitz
▁Gon
▁atmosphere
▁soccer
▁wider
▁cancelled
▁maps
▁1970,
▁Victorian
▁restaurants
▁Nev
gebra
▁historically
▁locomotives
▁looked
▁asks
making
▁guilty
▁1979,
▁vel
▁reducing
levard
▁lieutenant
▁Natural
▁grandfather
▁meat
▁variant
▁Lan
▁Goth
free
▁recognised
▁crosses
▁mic
mun
▁Rio
▁exercise
▁attempting
▁Utah
▁exactly
▁pip
▁Story
▁pages
▁winds
▁posted
▁believes
▁productions
rary
West
▁Capital
▁solar
▁Lud
riel
▁Hab
▁Tib
▁|
idal
▁43
▁legislature
▁execution
▁Tamil
zed
roph
▁designation
▁editions
▁grav
▁Roosevelt
▁Obs
▁Last
rows
▁oxygen
▁seemed
▁guarant
azines
▁ongoing
▁1974,
▁Rest
▁sample
▁buses
lined
▁Bomb
▁difficulty
mm
▁manufacturer
▁Branch
▁28.
viously
geon
▁UEFA
irates
ourse
▁wel
sor
arting
▁answer
zing
▁crimes
▁Mall
▁Nicholas
▁Wor
▁compla
▁EU
▁slave
▁impossible
▁Sultan
▁isolated
▁evil
▁Dance
▁1968,
SI
▁fill
▁calendar
Qu
▁requested
▁vertical
▁concerning
▁1000
▁Cad
icts
▁cyl
▁1981,
cu
ulu
shaped
▁marry
▁romantic
▁enters
▁integr
▁enthus
▁instruction
▁Ric
omous
aced
▁acquisition
▁mamm
▁approached
▁Limited
pany
asks
▁unless
ashi
▁1991.
that
▁reaches
▁signals
▁Collins
chers
▁gear
▁Pad
cho
▁1952
▁mo
▁trials
▁Box
▁submarine
▁variation
onds
▁Tol
▁accessible
achment
▁overseas
▁speakers
▁Girls
▁empire
▁manage
▁dollars
▁winners
▁deputy
▁tot
▁Springs
▁Stevens
ource
▁waste
▁Wrestling
mits
▁resumed
▁explan
▁Kirk
unct
case
▁Indonesia
▁artific
▁blow
cht
▁VI
▁respective
quir
▁amounts
▁elementary
▁foss
RO
▁Has
▁sequel
▁LP
▁graduating
</
▁Sche
apping
type
▁1943
▁Construction
▁10,000
rep
▁angle
▁Turner
▁fee
▁architectural
▁Cricket
▁footballer
itional
uction
▁1975,
▁subdiv
▁1954
▁sailed
▁prove
▁pseud
▁computers
▁experiments
▁wants
▁ranking
Hz
▁(7
▁1990.
▁Neb
▁Singh
ibilities
▁Publ
▁Hawaii
▁depression
mn
▁Gate
▁drivers
ugg
▁enemies
▁analog
▁condem
▁monastery
eters
ailand
▁surpr
▁"".
AN
▁Ye
▁sang
vol
istant
▁Friday
▁brick
▁pictures
▁Arkansas
▁baby
▁Chand
▁Verm
▁affiliated
▁departed
trans
▁Airlines
▁grades
▁52
▁Carlos
▁march
▁Ple
▁Grey
▁describing
▁kne
▁Organization
▁Judge
▁biological
▁tape
▁assisted
▁doors
▁Isa
▁inhib
▁promin
Pr
▁highlight
▁odd
▁farming
ups
▁Champion
▁honorary
amics
000,
▁Tob
▁legislative
▁collapse
00,
akespe
elta
▁sovere
▁proof
▁Athens
asi
ective
▁withdrew
▁organised
▁Kil
▁UC
▁Barn
▁opponents
raham
▁breeding
▁Report
▁coup
▁feud
icate
▁Emer
▁Zone
▁Ton
▁difficulties
game
▁tub
▁1976,
▁emphasis
▁ha
▁Alaska
erk
▁housed
▁nickname
▁vul
ieth
▁Mi
speaking
▁merchant
▁las
employ
phew
ović
▁Rabb
▁eldest
▁cruc
▁delivery
▁Bask
▁0.0
▁controls
▁conservation
eta
▁Cinc
▁Thor
▁Hunter
mel
▁Nevertheless
▁coinc
anga
▁reorgan
nowiki
opal
▁rela
▁explain
▁Cold
pres
▁electricity
▁tag
olar
front
▁options
▁pointed
▁Model
▁soldier
▁Chen
▁faster
▁Prom
▁Clay
41
▁(15
▁duo
▁1944,
eton
▁earning
oria
▁descendants
▁alive
uki
▁nurs
▁spend
▁hills
▁rout
▁gross
▁1949
▁Hem
▁conscious
▁tons
▁recalled
oj
▁Terry
▁1953
strong
EP
ania
▁fab
▁partners
▁drafted
▁associate
winning
▁Ice
▁broadcasts
▁submitted
▁campaigns
ishops
▁chrom
▁Adela
▁Baptist
▁Lloyd
enberg
▁partial
▁switched
▁Bron
▁improvements
▁Chel
▁Leeds
▁bay
▁torped
▁powered
▁dramatic
At
▁ninth
akespeare
▁Cuba
▁doesn
elected
▁funeral
bes
▁Pierre
▁marine
▁Tu
▁perceived
▁abolished
▁drums
itic
▁magazines
▁Thailand
▁Cov
▁1969,
▁Michel
annon
▁Symphony
▁3-
▁surviv
▁Belgian
▁playoffs
▁consistent
MI
rawn
▁Pack
▁alternate
▁convicted
▁Legislative
▁Scient
▁Rogers
▁tone
▁thinking
zes
▁proteins
owed
▁sugar
▁Bris
▁Alberta
▁walking
▁nut
▁consolid
▁Code
▁medals
▁hardware
acht
▁saved
▁burned
oil
98
▁fib
▁Rico
▁1978,
amo
▁flew
▁comparison
▁noble
▁Eug
▁lap
▁168
hent
▁Romanian
via
▁discrim
▁convinced
▁graphics
▁coaching
upt
▁fifteen
▁rated
▁Books
▁prox
▁inspiration
▁viewers
speed
▁Alt
inates
▁Kan
irect
▁mainland
innati
ugs
▁argues
▁implementation
essed
▁escaped
arriors
▁magnetic
▁plain
▁overt
▁Invest
dist
▁Pil
▁Stu
rise
▁comfort
▁Ent
graph
world
isp
aration
avan
▁Record
▁gal
▁recur
▁ruler
ointing
▁departments
▁affair
zi
▁latest
▁Player
ubs
▁deter
▁remote
▁ticket
lades
ected
Do
▁Former
▁preparation
▁Buffalo
SU
alling
agg
lived
One
▁stem
▁Together
▁explains
▁birthday
nia
▁nest
rupted
▁exclusive
▁Small
▁bankrupt
▁Know
bane
alia
▁1971,
▁removal
▁Fisher
▁travelled
amese
▁videos
▁beating
▁(6
etary
Donald
▁Jama
▁Barbara
▁shield
▁truck
rating
▁demands
phan
▁copper
▁Bald
▁attorney
itime
▁1973,
▁Sign
▁Nova
▁Ukrainian
▁Bud
▁habitat
▁ratings
ubb
▁Maine
▁colonies
▁tight
▁Trinity
▁reforms
▁inherited
esty
py
▁radiation
▁sleep
▁lie
▁aqu
keeper
arry
▁fulf
▁Arena
ovo
▁predecessor
▁merely
▁decides
▁1967,
▁judges
▁simultaneously
▁Shel
▁revival
▁understood
▁revised
▁receives
▁temporarily
▁Maced
▁radar
▁ties
▁excellent
RS
▁Jenn
▁Adelaide
▁matrix
▁scores
▁Race
▁referring
ME
irts
▁Phoenix
egas
▁Cha
▁1951
orporated
▁Unit
▁uncertain
▁portions
▁ske
▁certified
language
46
NC
▁flex
▁subsc
athered
▁plastic
▁lakes
eric
▁Alice
▁Ring
RT
olve
▁Support
oric
▁kings
▁drag
▁connects
othy
▁Pun
orious
▁organis
▁Tak
▁prev
forced
▁ski
oking
▁loop
▁Round
eston
▁Lad
▁guide
▁Territory
▁Cincinnati
rection
aders
compass
▁missile
▁Len
venth
▁familiar
▁replic
▁Ral
▁Banglades
apped
▁carries
▁mail
ects
▁symp
▁Mother
▁incom
▁Nav
▁Ins
▁significance
▁earthqu
LS
appy
▁Mult
▁1977,
▁surve
▁Boulevard
▁disapp
noon
▁hybrid
▁aboard
▁Charlotte
99
▁telephone
▁cultures
77
▁Hugh
▁obst
▁29.
▁Venez
▁tribut
lik
▁Ottawa
two
celand
iot
▁Archbishop
oded
▁Spirit
eto
▁1936
stad
▁deemed
▁worst
▁Elementary
▁helps
▁caps
▁neighboring
▁mal
▁Chem
▁fewer
▁ju
▁Our
▁Dod
▁Burg
▁Rhod
▁alien
▁procedure
"'
▁automatic
▁variations
▁rol
▁targets
▁exha
▁"[
finals
▁Walt
▁1989.
▁battalion
▁promoting
▁reflected
▁Shakespeare
▁Comple
▁Kra
▁Aber
berry
▁bone
scar
▁filming
May
ennial
▁attendance
▁Dub
▁resid
lection
▁Section
▁1890
▁punk
▁dischar
nda
▁closure
▁arriving
▁Speed
▁Living
▁encl
▁informed
▁completing
▁30.
▁Salv
▁Chang
▁Pant
onda
▁concepts
izer
▁Ivan
▁hidden
uru
▁magic
▁siege
▁Fact
WA
▁torn
▁tox
▁sket
▁qualifying
▁collaps
▁supplied
maker
stown
▁suspension
▁files
▁borrow
month
▁Lock
▁pupils
▁thereby
▁Side
▁Coal
▁Pearl
▁aggreg
ean
▁46
▁tourism
▁Blues
alan
▁Jonathan
▁Medicine
▁smooth
▁(196
▁placing
▁Dom
▁compound
ospel
▁invented
disc
▁datab
▁nam
▁Tourn
▁Princip
ör
oda
▁Larry
iper
▁scope
▁horror
▁1938
▁retain
▁crops
▁Bour
▁handle
issions
▁spir
▁Singles
works
▁therapy
▁electro
▁Sic
▁shorter
▁venture
▁Type
▁specialized
helm
▁Plant
emble
▁Giants
ortion
▁approaches
▁orb
▁SP
▁Madrid
atra
▁danc
▁Byzantine
▁metropolitan
gence
▁guests
was
▁250
▁chron
▁nephew
▁mixture
Or
▁Mind
duces
weet
SW
▁pushed
43
▁ordinary
▁Freedom
▁vector
minster
▁commenced
▁consumption
arr
▁Socialist
allen
ocket
▁favorite
▁resignation
▁Ult
▁Newcastle
ierra
▁interviews
▁Pic
▁Grad
olen
What
▁dogs
▁Lore
▁rocks
▁Iranian
▁Delaware
▁Currently
▁Eli
▁Jun
▁Term
▁parking
rooms
▁victim
▁Sr
▁perspective
▁sustain
▁defended
▁Commissioner
▁outbreak
▁objective
estab
omorph
▁Keith
▁flour
rank
▁Late
▁arena
aha
▁patent
▁les
inea
▁Systems
▁Armenian
▁internationally
▁Delta
▁tube
▁Storm
▁Scout
▁Ref
▁Gard
▁pulled
▁prol
▁tours
▁festivals
▁tested
▁Hig
▁attacking
▁Had
▁Vegas
▁Rivers
▁endors
▁organic
▁accommodate
▁remix
▁outstanding
iji
▁rhythm
iri
▁1880
iors
▁ranges
▁Trophy
▁CN
ullivan
▁discontinued
▁indeed
▁accurate
▁abilities
nik
▁Catherine
▁Poly
▁requiring
DC
▁stored
▁Tang
▁acres
▁cinema
▁consumer
▁murdered
▁1910
▁decide
▁:
▁Brew
final
▁scatter
▁Racing
▁willing
▁Bath
▁spr
▁situations
outheastern
▁administered
▁Bobby
▁concur
dess
▁().
ulous
▁waves
▁dissolved
err
▁Boe
ffield
abad
▁sung
▁Secret
▁framework
▁Chester
▁Saints
pled
▁stere
▁IC
▁sisters
▁intercept
▁stops
▁Fif
ums
▁supplement
▁fairly
▁wrestling
▁Bulgar
▁clinical
▁confused
osy
▁verse
▁Dog
▁gardens
▁Nam
▁margin
Family
▁disorder
▁scholarship
▁Hughes
▁Pel
▁1965,
▁Vincent
▁recovery
inite
▁Places
pressed
▁fame
▁petition
▁165
▁Marx
▁Dakota
▁grey
▁bath
▁manufacturers
▁Craig
eper
ishers
orient
▁(0.
▁Economic
▁prevented
▁desert
itudes
iffer
▁exit
▁fluid
▁1942,
irty
▁cutting
▁deliber
▁raising
Sm
▁initiative
▁Sha
▁cook
▁worksh
▁Ru
gom
▁1918
▁Curt
▁manip
▁mini
igo
▁sharp
▁firing
▁Buddh
▁accum
▁holiday
▁Venezuel
▁hyp
▁dict
▁judg
▁Architect
▁elabor
▁Beginning
mother
▁artificial
▁counterpart
("
▁feeling
▁rect
▁bridges
▁denomin
▁Abraham
▁58
▁ampl
▁Oliver
▁theorem
▁maintaining
▁Ferr
▁inaugural
imensional
▁orchest
▁permit
▁encompass
▁spell
icing
▁Video
▁noise
▁reverse
▁delayed
▁elevated
▁answ
▁comprises
▁Bond
▁forth
▁visits
▁travels
▁universal
▁succession
▁disaster
▁Urban
And
▁Newton
▁legit
omon
▁friendship
én
▁Mason
agar
▁Iceland
▁Spec
▁narrative
▁Track
▁Gilbert
▁Attorney
▁abund
▁bonus
▁orbit
▁Snow
▁Bav
▁autobi
▁telling
▁casualties
▁Frances
▁scen
▁horn
iginal
▁diseases
▁kidn
▁Slav
▁reporter
▁Appe
▁Hob
▁1964,
▁Diam
▁republic
▁Mul
▁beliefs
▁pairs
▁(10
▁Salt
oustic
▁particles
▁Holland
▁dependent
▁Malt
written
▁lights
▁landmark
▁moderate
redited
acked
▁poison
ido
▁800
▁Anglic
ipper
▁Harold
▁pist
child
▁Note
▁eligible
▁ward
▁Serbia
ère
▁1937
▁hydrogen
cat
▁USS
▁reporting
▁1941,
▁Denver
oven
▁volt
▁Steven
lation
core
▁comprehensive
▁deriv
piece
▁quad
▁SA
▁Marvel
▁masc
▁convert
oker
whe
▁predominantly
▁Shaw
▁milk
irms
▁drinking
▁Herbert
▁Robin
▁Fab
pin
uka
▁cloud
▁maintains
▁efficiency
▁ecc
▁sure
▁shr
avil
▁libr
rous
▁battery
▁Ethiop
▁manual
▁1966,
▁Formula
▁Ground
▁gent
▁Daily
Black
RI
▁Stuart
▁belt
fortun
▁focuses
▁waiting
▁pod
TE
▁clan
▁Jazz
▁relevant
▁Stars
▁Eddie
▁summit
▁gauge
aco
▁functional
▁virtual
▁drove
▁1935
▁Celtic
elfare
SD
atche
▁1988.
▁enroll
▁statements
▁Vel
aku
▁rede
new
▁176
▁Industrial
▁Bright
▁allies
eras
▁interaction
sis
▁rac
iler
▁exhibit
▁photographs
▁drink
▁literacy
his
▁Psych
▁behaviour
▁monarch
sub
▁displays
ds
uis
▁rebellion
▁unex
▁varies
▁armies
▁followers
▁Municipal
overed
sa
▁Soft
▁aw
▁adjust
length
▁Loc
▁altitude
▁Josh
▁citizen
▁Patt
▁redes
cester
1).
▁indicating
▁cathedral
▁celebration
▁transit
▁flash
▁pilots
▁Perry
▁progressive
▁Pin
iast
▁Grammy
▁Serbian
▁Pictures
four
▁corps
▁disbanded
▁Vlad
Me
▁enforcement
▁Edwards
▁documented
▁varied
▁destination
▁programmes
▁tru
▁blind
▁readers
ulus
▁algebra
▁accompany
▁revol
▁arrive
▁underwent
formance
▁Ko
BO
▁rice
▁Aer
▁namely
▁Tag
omed
▁jet
▁boss
▁Philippine
▁athletic
uez
through
▁lifetime
▁belonging
▁structural
▁Sheffield
HF
▁finance
▁businessman
▁depict
agonist
rams
▁Serge
00.
▁aviation
▁flee
▁technologies
▁mans
▁Wang
▁warfare
lair
▁symmet
▁Draft
▁SC
▁Hope
▁independently
▁remembered
iability
uced
▁gift
care
▁cogn
▁Susan
▁disturb
made
▁gap
▁privile
▁rib
▁intense
encer
▁overl
▁Case
▁1987.
▁cemetery
▁vocalist
▁sitting
named
▁Stre
aja
▁Examp
▁liver
▁Dennis
▁repeatedly
▁memor
▁cartoon
▁boot
▁Nevada
ampton
▁permanently
▁Action
ampa
▁bombing
keley
▁Ages
▁recruited
▁Full
▁toler
▁package
tar
anim
ivic
▁Season
▁emotional
_2
▁comments
▁restrictions
86
▁afford
▁Ralph
▁Transportation
▁51
▁qualify
▁valuable
▁premiere
▁enrolled
▁Toy
▁fasc
avia
sts
▁sending
▁wasn
▁forcing
▁4-
▁Grade
▁governed
▁undergraduate
▁severely
cycl
▁Studio
▁printing
cling
▁relie
▁contracts
▁Jar
▁traveling
▁profit
irk
▁citing
week
–6
▁Neil
▁imprisoned
▁Lov
▁1986.
▁beauty
owski
▁wish
ouncill
▁Blood
song
▁1929
▁57
okes
▁conflic
▁Lion
▁topics
▁updated
▁Primary
▁forty
97
▁gathered
▁craft
▁putting
▁economics
aris
effic
list
▁prototype
▁politicians
AA
▁backing
▁concentrated
▁Adv
▁culmin
2).
5),
▁Rav
▁easier
▁surrender
▁requirement
verse
▁1940,
▁ft
▁Hunt
istent
▁Helen
87
▁2-
▁prey
etta
sized
▁quarterback
▁fighters
▁promised
▁Wallace
▁curric
rington
▁developments
ocity
▁MD
LP
▁Bert
▁diplomatic
▁Gaz
▁prince
▁internet
▁memb
brev
VP
▁toll
▁volunteers
▁similarly
▁divorce
▁interface
▁canon
lia
▁steep
▁Munich
▁Cou
imir
▁tissue
cott
▁skill
powered
▁Luis
▁challenged
▁outdoor
▁bull
▁Parish
▁jury
▁fifty
▁HD
▁asking
▁download
▁eventual
▁operators
▁Buch
▁realized
roe
▁Bangladesh
▁Ara
▁thanks
▁1943,
If
▁closest
▁Brisbane
▁regul
▁Independence
▁demanded
▁tel
bul
▁corruption
rus
▁Classic
▁Pay
esters
▁Herman
ocy
aping
▁addressed
▁flav
ijing
▁Basketball
▁separation
▁calcul
enburg
▁comics
▁proportion
▁phosph
▁preserve
▁Lear
white
haus
▁Ax
▁failing
▁Madison
▁Chapel
▁tum
orp
▁Mend
▁columns
▁trig
rapped
oni
holm
▁ports
▁1960,
▁leaf
▁Based
▁sharing
▁muscle
▁syndrome
▁Wed
▁monthly
▁substitute
▁wore
▁abandon
▁prepare
oro
▁enact
▁collaborated
▁solutions
eli
▁stick
held
▁soph
▁Kap
▁empty
▁Yang
Car
▁1985.
acles
▁rifle
▁export
enesis
▁Nep
▁ris
▁managing
▁MS
▁tu
▁Monday
▁divorced
▁Mak
▁Vas
▁Northwest
dimensional
orders
▁algorithm
Station
▁contested
▁wheels
▁horizont
▁"(
▁freight
▁subt
▁neighbouring
▁Mann
▁protests
opened
▁locomotive
▁hole
▁confront
▁breed
▁immigration
▁prosper
▁bars
▁MTV
▁bypass
▁1914
▁afternoon
▁clar
▁centres
▁handling
gs
▁Arnold
eff
Sw
▁1933
itol
▁looks
▁attraction
▁teeth
ophical
hal
▁fallen
▁grave
▁improvement
▁Bog
▁societies
▁Joan
▁sav
▁Woman
▁Mills
▁Transit
GM
▁Ted
fast
▁Grove
▁warning
▁doctrine
haw
▁Tournament
▁Any
German
▁bats
▁bag
▁Somers
▁Om
about
▁Rab
▁integral
▁Similarly
▁Joy
inf
▁sick
▁mos
▁orn
▁shifted
▁forg
▁arrives
▁abst
▁Sut
▁decrease
join
▁pharm
▁speaker
▁extending
▁virtually
▁phenomenon
▁precip
▁alph
▁forb
▁extends
▁compat
▁enabled
uns
▁polar
▁rever
▁fantasy
▁widow
▁gaining
▁Bachelor
▁quiet
▁Prad
wig
▁encountered
▁generations
▁54
common
▁Heights
▁Butler
▁1870
▁ambass
▁Yam
▁Gener
roid
gomery
▁Murphy
▁Venice
▁renowned
▁destro
▁codes
▁Dol
▁CR
▁Oil
▁reception
▁diesel
ouns
empl
▁Horse
▁BCE
▁depends
ipher
▁surprise
▁Gay
▁Delhi
▁Lords
▁define
▁merc
▁feelings
▁1963,
▁Florence
▁IP
var
▁bare
▁footage
atar
ospitals
aughter
▁Heavy
bing
▁Where
▁golden
▁Tibet
rien
▁animation
▁cla
▁1939,
▁mi
intendo
▁Hann
▁Syria
▁altered
lier
herent
▁Notable
Eng
▁varying
▁sou
▁infer
anger
▁compact
▁Gregory
▁samples
▁distinguish
naissance
▁cooperation
▁inhabited
writing
▁commentary
▁morph
▁Vers
▁reward
▁Bulg
▁Kos
▁Exper
▁Wells
▁fault
▁Ord
▁Using
umni
▁tomb
▁circulation
▁Kle
▁tip
▁voy
▁payment
▁Lag
▁Lev
▁1934
▁cow
▁Romans
▁interpreted
▁Shep
▁(190
▁stake
▁faces
John
▁Renaissance
uchy
omber
count
▁hoped
fly
▁jump
▁1928
▁shipping
▁quantum
▁exile
▁marg
▁challenges
▁CC
▁Napoleon
▁seriously
▁Tun
ormal
asia
▁Sony
▁hem
illes
▁contribute
▁register
▁victories
onna
3).
rised
▁Mut
▁2.5
irl
▁orient
earing
▁veteran
▁brew
▁apprec
▁Prest
▁transformed
▁personally
▁probability
▁Rhodes
aturally
▁occasional
▁infection
▁trouble
▁dubbed
▁66
▁mild
▁Rot
▁Southeast
▁segments
▁Sah
SE
▁155
▁IBM
▁cave
▁coffee
ificate
▁1984.
imm
▁wickets
▁Culture
▁rational
▁talks
▁audiences
iens
▁Leo
▁Yale
▁sustained
▁signature
▁dism
▁examination
▁cotton
▁Abdul
▁grandson
arus
cker
▁laboratory
iko
▁compiled
▁Tas
▁Montgomery
hin
▁0.1
▁logic
iev
agger
▁Language
▁client
▁communist
▁Pedro
incorporated
regular
aple
▁Treas
▁involve
▁1917
▁chronic
▁Lebanon
▁weaken
▁Exchange
▁happy
▁achievement
▁Dale
▁Tigers
randed
▁Sierra
unny
▁secular
reated
▁Digital
utors
▁participating
▁organisations
▁Bass
▁Bird
caster
ocent
▁pap
▁Cond
▁doubt
ifier
▁Berkeley
▁Esc
▁Gas
▁vulner
▁compounds
▁Bened
▁hier
▁clot
▁1962,
▁interesting
▁Wag
▁Indies
▁sword
▁runner
▁Fem
▁chest
▁Call
▁entity
Best
ansk
▁intervention
▁unemploy
▁engage
cca
oirs
rets
▁Bengal
▁hyd
▁theatrical
▁devast
▁ion
▁Wu
inery
▁listen
▁1924
▁Lie
▁Sask
ignated
▁Flight
pine
▁cad
▁Nad
▁Lakes
aus
▁quoted
▁dialogue
▁Mol
▁Croatia
ibn
▁85
▁Rus
▁presents
▁Beijing
▁Methodist
▁genes
▁Ib
▁grid
▁Tommy
omo
pla
King
▁Pent
▁queen
▁Kit
iformes
▁McL
▁actively
▁1922
▁Petersburg
▁batting
▁considerably
▁Tow
▁Aviation
▁Campaign
cano
▁decorated
▁patri
▁gif
▁dealing
▁mall
▁mentions
▁advertis
▁McM
▁sculpture
nal
quer
▁fabric
▁Palmer
▁31.
▁Historical
aran
raska
angular
▁Ancient
▁1932
▁numbered
rific
post
▁currency
▁archaeological
▁sin
▁Bros
▁installation
▁Westminster
▁Hur
alin
▁1945.
▁BM
▁Raymond
▁Pul
▁ash
▁curve
namese
amine
▁elite
▁rocket
eyer
afe
▁Lanka
▁Junction
isan
▁Sox
▁announc
▁storyline
▁fraud
▁relating
umer
▁awareness
▁Pep
▁danger
▁authorized
▁lawsuit
▁Java
▁AA
▁Eld
▁Phillips
gus
▁seeds
▁lineup
▁Wilhelm
▁phon
▁56
▁variants
▁1983.
▁Guinea
▁Student
▁anticip
▁sciences
▁chemistry
▁ferry
▁basin
▁timber
▁martial
vet
DF
▁colleagues
▁wal
▁potentially
▁Yu
▁blues
arson
▁Secondary
▁Maz
▁Manit
▁Lux
▁regist
▁exchang
▁gran
▁cuts
▁Roche
▁Winn
▁ow
▁allegedly
▁bears
▁specified
▁conflicts
▁crack
▁flank
▁fortress
▁Sullivan
▁tourists
▁Peru
Euro
▁varieties
▁considering
▁reinforce
ambig
▁bicy
▁defending
▁Eight
▁suburbs
▁observation
▁Starting
lett
▁sulf
amous
▁Fine
▁Anglican
▁cosm
ów
▁Reserv
▁beam
▁breaks
boro
▁tasks
rys
▁NASA
▁trend
▁argue
▁Harvey
▁brigade
▁abb
▁Gang
▁vital
▁50%
▁Say
wright
▁Lot
▁generate
▁drain
▁necessarily
▁revolutionary
▁priests
▁Vo
umbent
ourt
▁1980.
▁minimal
▁collective
▁Lions
▁desired
lights
▁homosexual
6).
built
▁Yugoslavia
govern
▁nearest
▁Watson
cycle
▁referend
▁ministry
▁sequences
▁acknowledged
▁77
▁engineers
ön
▁68
▁tenth
▁Bent
▁GT
▁recognize
▁EC
▁1927
▁Hein
munition
swick
▁restore
▁soap
▁stronger
▁suspect
▁farms
acco
▁Grace
▁Kon
▁Derby
▁rainfall
▁configuration
▁Occ
iffs
▁consequence
▁conjunction
▁Isaac
Love
▁triple
▁chlor
aukee
▁Provin
▁comprom
▁humid
▁symbols
▁Elli
▁rotation
▁prisoner
▁activist
ulsion
▁Midd
▁Guild
▁verb
4).
umberland
▁Iraqi
▁leagues
▁Minor
▁Price
▁revived
▁mathematical
▁Stein
HA
▁1982.
▁Amaz
▁Saudi
olics
▁Computer
▁Altern
▁physician
▁procedures
iscopal
▁ministers
▁thirteen
▁properly
▁celebrate
▁confusion
▁Masters
▁psychology
gas
▁literally
fa
▁53
ricks
▁stability
▁CA
▁pole
▁1961,
hn
▁illustrated
▁Sad
▁recipient
▁PlayStation
sterdam
▁sky
abul
▁suggesting
▁Nintendo
▁je
izard
▁lighting
Gu
▁Moroc
▁upgraded
▁refugees
stead
▁arbit
▁1912
▁punishment
▁Leonard
▁retiring
▁bulk
holders
▁seized
▁territorial
▁photo
▁graduation
▁tournaments
▁Columbus
▁Liberty
▁Sor
▁Bulgaria
▁absolute
Time
▁Days
▁Swan
▁Vermont
▁survival
▁handed
▁binding
▁Productions
▁Gust
▁overw
▁Still
▁intermediate
▁1931
▁expanding
née
▁Barcel
▁Diocese
▁obsc
▁Rat
eling
idad
▁lift
▁suspic
▁relegated
▁prestigious
▁2,000
▁95
▁scr
▁anthrop
cession
erness
anni
▁1921
▁Ernest
▁creates
Big
▁Got
▁Beth
▁Brah
▁accomplished
▁push
▁1972.
▁Ronald
▁Industry
cal
▁Marqu
▁absorbed
ghai
▁Yellow
▁reluct
▁haz
▁rivals
▁naming
oting
▁Next
▁Range
▁owns
–10
▁threw
▁lock
path
Christ
cia
▁Crime
▁Henri
▁profile
▁clergy
▁sacrif
▁oral
▁optim
▁arrangements
▁disappeared
▁1860
▁1979.
▁extinct
▁liv
▁Past
▁Obama
▁Rabbi
inyl
eda
▁conspir
▁Islander
▁Gardens
▁inches
▁implic
▁Wellington
▁shots
▁counsel
▁psychological
▁boards
▁Cabinet
▁regulation
▁Perth
▁Oscar
pel
▁Nebraska
00,000
▁photography
otion
▁reactions
▁Hum
▁kilometers
▁lux
▁Net
five
▁Circle
▁tea
▁equally
idance
▁passion
auer
rost
▁Luke
▁Reed
▁Kum
▁provisions
▁democracy
▁Arc
▁Revolutionary
▁Vill
▁Intelligence
gra
▁venues
▁autumn
both
▁governing
▁Examples
▁alumin
▁decreased
NT
▁slavery
▁Kay
boys
▁Joint
▁Vietnamese
▁terrain
ologically
▁discovers
▁Bot
▁regardless
▁Kl
▁acquire
▁scandal
DE
▁Besides
▁breast
▁assembled
▁Songs
▁AS
▁messages
achi
▁€
▁Bulgarian
enos
▁1947,
▁Hamb
tingham
▁diversity
▁Players
▁NAS
▁Sug
▁compositions
asha
▁Gam
▁Kath
▁1948,
▁encourage
▁Argentine
kees
▁Essex
▁beer
▁violin
▁mineral
senal
NS
▁Production
South
▁Scar
▁Shar
▁Boeing
▁1974.
▁suddenly
arms
▁72
waukee
▁Cinem
izz
ashes
World
▁pitcher
▁posts
mo
lee
▁Eis
olith
unning
▁civilians
▁insects
▁customer
▁stones
ludes
ounted
▁comprising
mented
▁earthquake
▁temples
▁Log
south
▁releasing
▁Abu
quiry
icken
▁relatives
aba
▁array
▁bore
▁commitment
▁peer
▁pian
▁1946,
▁Todd
▁Julian
▁1925
▁Somerset
▁conquest
▁solely
▁fisher
ovich
iblical
▁Danny
▁Cardinal
▁striking
▁#1
wyn
▁1970.
▁Assistant
▁Observ
▁voltage
selling
▁Operations
ju
rez
▁assists
hero
▁employee
auc
▁verte
overy
▁Fight
▁suspected
▁hub
▁1923
▁helicopter
▁mit
▁engagement
▁voiced
anta
▁Anim
sburg
▁deeply
▁statistics
▁imposed
▁Seb
▁schem
▁Warsaw
▁Jess
▁twent
▁bearing
▁Ferdin
ishn
▁raid
▁scientist
opol
▁Direct
▁receiver
▁inspe
▁unw
▁Oakland
story
▁0.2
▁thorough
▁1926
▁Others
▁Bennett
aho
▁Eagle
▁essay
although
▁nerv
▁colours
▁plates
izations
▁Brunswick
oriented
▁1.5
▁portrait
▁explanation
▁130
▁Plat
▁Nine
▁commune
▁jail
▁anchor
rium
▁jew
▁VII
89
▁kinds
▁Hus
▁integration
first
▁Dragon
▁bassist
▁volunt
▁stroke
▁Crow
▁Cox
Red
▁yard
▁Continental
▁migration
▁virus
▁complic
second
▁Manuel
▁notion
▁penet
▁Suz
▁prompted
▁opposing
▁observations
▁Pi
▁Magic
▁Ruth
ussion
▁honors
dal
▁Golf
arts
▁amph
brook
▁Room
▁Hom
▁instructions
▁kg
▁artif
arten
▁resource
▁enlar
▁Municipality
▁bench
▁Lamb
▁stolen
▁curriculum
▁acoustic
▁Amsterdam
cult
▁Trump
▁focusing
▁Syl
▁coc
▁ammunition
ambers
page
▁Guide
▁Motors
▁Otto
▁enhance
aning
hall
▁Representative
▁59
▁bread
▁dancing
▁Lem
▁Holmes
oka
▁bin
repre
▁supporter
▁attitude
etheless
▁Rams
▁Collection
oshi
▁duration
▁theology
stage
ophone
▁Liu
▁transformation
ilia
▁1981.
▁shoulder
▁transmitter
▁suburban
▁Barcelona
esar
▁Lucas
nut
▁biography
▁unions
eness
▁presentation
▁Haz
▁criticised
isting
urated
▁occurring
▁Nashville
▁allegations
▁Protection
▁Bear
vanced
▁Colombia
reprene
▁onwards
▁molecular
▁predict
▁transported
▁happen
thal
▁stationed
–199
▁Carr
▁Malay
▁Croatian
eded
▁Armstrong
igation
jab
▁167
▁Chron
▁1976.
mill
imity
▁manufacture
▁Cer
▁beaten
▁buff
▁automatically
veloped
▁Isab
▁continental
▁Campus
▁contributing
▁molecules
▁99
▁1975.
▁Mead
▁anime
▁hospitals
▁bell
She
rague
▁cancel
ections
▁investigate
rov
▁peninsula
alties
▁1950,
parent
enson
▁Valent
oslov
▁orange
str
itting
▁gallery
▁Leader
▁wait
▁pursued
▁Get
▁brings
imo
▁Friends
▁referendum
▁burial
▁MA
▁ancestry
arded
▁disk
▁1968.
ilian
▁Oz
▁1959,
▁Wald
▁1958,
ieg
▁cens
▁enable
▁Moreover
▁alphabet
▁spectrum
▁renewed
BE
▁synthes
▁layers
▁Technical
▁confidence
▁heading
▁Amend
▁Newport
atha
pring
▁100,000
▁abbrev
▁Must
▁Carn
byter
▁1915
phal
▁Put
▁WC
arma
▁metab
▁beneath
▁hypothesis
▁pronounced
▁coached
▁(1.
:30
▁paying
▁variables
▁spokes
▁fourteen
▁prayer
▁Moz
▁disagre
▁Cultural
▁adventure
▁nationally
icity
▁pioneer
▁enrollment
▁criteria
nty
▁manages
ourag
backs
▁seal
sur
atever
▁Bach
▁circular
▁butter
▁surrend
allenge
▁democratic
imon
inator
adian
▁169
▁stretch
▁Diamond
rift
▁Isle
uli
▁evident
▁São
pit
▁surfaces
▁citizenship
▁Survey
▁estimate
▁Clarke
▁mutual
mid
▁Hurricane
▁soci
▁explosion
▁practiced
▁database
itchen
▁artwork
▁burning
▁naturally
▁sixteen
▁assign
bian
▁authent
▁aggressive
▁flagship
▁Franco
▁survivors
ellers
▁impressed
▁legendary
▁Thunder
▁1956,
▁Gand
▁Spencer
boat
ennium
▁pale
▁velocity
▁belongs
▁Gabriel
▁towers
handed
▁travelling
▁Chi
▁1978.
▁adoption
▁athletes
▁neighbourhood
bone
Te
▁Eagles
▁consent
▁1971.
▁Albums
▁Political
March
To
▁nationwide
▁Reyn
athon
▁withdrawn
edge
▁coaches
▁findings
eu
avian
▁Manitoba
▁Crim
▁conductor
▁shaped
▁clay
▁Gonz
▁Legend
▁unp
▁Flag
▁Soph
▁knee
ources
fecture
arrior
▁Policy
▁constantly
▁unincorporated
▁aims
▁Face
▁Professional
▁underlying
▁1973.
▁69
ouch
▁Reading
▁gods
▁Anti
▁grants
inned
▁Page
▁anten
cur
▁Eston
▁dying
▁reveal
▁deposits
vised
▁preval
▁Cameron
ourg
▁sweet
▁McD
▁optical
▁Right
▁performers
▁lun
▁fatal
fix
▁Dest
▁distant
▁1969.
axy
▁110
▁poorly
fortunately
HC
rod
▁backed
▁Compet
▁centered
▁Ja
aire
▁Beatles
▁Abor
iscal
▁sacred
▁torpedo
▁fees
▁privately
▁Deep
▁syl
▁pregnant
cock
▁kills
▁airfield
▁capabilities
▁32.
▁Edmund
▁Mahar
▁fate
▁125
ión
base
ollo
▁assassination
oding
▁improving
ridor
▁lesser
▁proximity
▁hurricane
atta
▁overwhel
▁Friedrich
▁Mig
▁Roll
▁Foster
▁sporting
alysis
▁Craw
▁1957,
itely
▁Ful
pic
▁Duc
▁Og
▁67
wind
estershire
▁Bund
vironments
▁dock
onal
▁impressive
▁ruins
▁grain
▁struggled
▁Cork
▁Schol
▁dimin
▁Soccer
▁tom
▁oct
never
▁Syn
▁span
▁Gy
aud
bet
▁deals
▁Morning
▁Sean
stop
▁Pete
▁estates
There
"|
▁Fourth
▁Din
▁Fish
▁Legion
▁Edition
▁identification
▁singers
ailing
▁NC
cor
ategory
▁NAT
cap
▁Hat
▁unclear
▁ITV
last
▁spots
layer
▁arose
PR
▁gymn
rators
▁Indianapolis
▁proceeded
giate
▁Block
▁Gothic
▁Owen
▁Milwaukee
erals
acular
▁announcement
OT
umi
▁tradem
▁hull
▁corporation
▁conducting
▁praise
▁minim
▁ic
▁Jacques
▁Wel
▁Lenn
▁Geoff
sole
▁guidance
▁commercially
▁proposals
▁width
▁Catholics
▁Return
▁staged
usters
▁Soul
▁Knights
▁worker
▁Alpha
▁Bod
▁fastest
▁78
▁Appro
▁1850
▁Durham
▁Cuban
▁Cant
▁absent
hev
"—
▁Ports
▁hopes
▁Czechoslov
shore
▁Thai
▁doubles
oi
▁Buddhism
▁Math
▁militia
▁Filip
casts
▁pitched
▁Tong
official
agle
▁Constantin
▁judicial
▁neuro
atories
▁carriers
kov
▁Spart
▁conce
▁jack
MT
elia
▁interact
▁Ferdinand
asp
▁Armed
▁Triple
ewise
▁ESP
▁bapt
isa
▁bankruptcy
▁Daw
ictionary
VA
math
▁Fly
▁nose
Super
300
▁62
▁arguments
▁Shanghai
▁Wool
yler
makers
yon
▁Typ
▁Wonder
▁flooding
▁indoor
▁Philos
fight
▁Pick
▁estimates
▁1/
▁pin
▁bachelor
atoes
▁5-
▁volunteer
▁Costa
▁1977.
vor
▁collapsed
▁sheep
▁ing
▁thrown
atus
ucker
▁Rush
▁cock
▁Tech
▁obvious
▁till
▁experts
▁Less
chief
▁rulers
ivia
▁(16
▁1916
▁lad
▁Located
▁FBI
▁"...
▁Heath
▁Apart
▁Aaron
arre
bird
▁1911
itated
▁populated
▁expelled
▁1908
▁trio
▁Franç
▁boost
▁Nottingham
▁separately
▁Ow
▁enorm
▁chapters
▁emerging
ittees
▁magnitude
arted
▁weigh
uckland
uto
▁theoretical
▁legally
▁bullet
▁advocate
DI
ogle
umps
▁reserves
▁Raid
▁dozen
Ang
▁Crus
▁acclaimed
▁inland
entry
▁fru
▁perpet
▁substance
▁Imm
▁Cornwall
▁consistently
▁Workers
Mon
▁lobby
▁incumbent
roscop
▁exhibited
▁Nature
▁ghost
▁environments
▁kilometres
▁drives
▁2–1
adier
artered
▁Rut
omatic
▁finite
onnell
▁Expl
quest
produced
▁Kid
▁12-
▁discrimination
▁Wals
forming
▁Palestine
iffe
▁assessment
▁lung
▁editorial
plant
▁exterior
teg
▁resear
cos
▁Higher
▁Lead
▁axis
▁164
▁oxid
▁directions
▁cryst
plete
▁tale
▁Conservation
▁Charter
▁pill
▁conquered
isons
▁rejoin
▁Drag
▁thermal
▁1967.
▁physically
▁crater
▁discipline
▁nicknamed
▁presidency
▁Nancy
▁Manager
▁Article
iche
▁Cruz
▁nineteenth
aneous
missions
▁honored
▁dimensions
ambiguation
group
▁Spider
▁dynamic
▁Guardian
▁southeastern
ente
▁Challenge
88
▁specialist
ichi
▁Kin
▁Gibson
▁1955,
▁cameras
ON
▁introduce
▁crucial
400
▁enlisted
▁Gael
▁trim
▁Yankees
▁exhaust
▁recurring
▁summ
▁Alger
▁speeds
▁lanes
▁Buc
▁compensation
▁Advis
▁publish
▁Belf
▁Shin
▁skull
▁tab
▁Tasman
▁Benedict
▁88
▁midfield
▁Moses
usc
-12
▁targeted
iliary
▁badly
▁ridge
▁Shore
yers
▁manifest
▁1918,
▁1949,
▁Nan
▁prohibited
algam
▁politically
imony
▁Stanford
▁certainly
▁bacteria
▁Eve
▁Ing
▁aest
chron
▁legacy
▁hitting
lass
Men
▁dish
▁touchdowns
▁northeastern
▁layout
▁adequ
▁banking
▁reconstruction
▁PS
si
▁Lutheran
▁Prop
▁140
▁horizontal
▁166
▁zones
▁Brooks
▁revenge
-15
▁IT
▁insisted
▁stabil
bery
▁Arabia
▁Auckland
▁cleared
▁tun
▁upset
▁1954,
UC
▁Nat
▁vegetation
▁noting
▁tram
-17
fra
▁Belle
▁joins
▁firms
▁Circuit
▁prospect
▁Montana
▁swing
Mr
▁freed
▁professionals
terbury
iformesFamily
itus
▁highways
▁1913
icking
▁posthum
Co
▁Cauc
▁lying
▁faction
▁Azer
▁ambassador
RE
▁derives
▁MC
▁streams
▁eating
▁Person
▁63
_5
iya
gary
▁Param
disambiguation
▁Left
▁Rice
▁Coach
▁Republicans
Pe
uba
▁Panama
▁unve
▁Data
assis
▁tactics
▁calculated
▁developers
▁Berg
bie
▁fla
▁Trent
▁fertil
▁2020
▁Pradesh
▁remn
▁Various
▁reunited
fr
▁Shir
▁consensus
▁Lor
▁bills
ben
▁dece
▁inscription
▁teammate
▁associations
▁removing
▁conceived
ctuary
Nov
▁wound
onation
▁synthesis
beat
uj
▁Roth
▁intellig
▁View
▁clients
▁indirect
▁composers
onso
iao
▁nights
▁$1.
▁relay
▁runway
▁Scotia
▁Cand
▁auction
19,
hl
7).
▁Fras
▁wake
building
▁plural
▁Kash
▁sheet
▁10-
▁Bag
ishi
▁rebels
Jan
▁Ny
▁Financial
▁OS
▁sensitive
▁Cut
hop
▁sits
▁airing
▁Chan
angered
wheel
▁tens
▁consequences
▁promise
▁Vent
▁1,0
▁threats
▁174
▁unexpected
▁outcome
anyon
▁intensity
▁complain
three
▁philosopher
▁manga
stock
▁10%
▁Apollo
▁invaded
screen
phis
▁autobiography
Life
▁Ply
▁moon
Europe
▁spite
▁Nobel
▁silent
▁accuracy
▁bonds
▁newer
▁Lodge
ahl
bai
▁ber
▁Desert
▁persec
▁confron
▁ibn
inee
uum
inum
▁monks
sted
▁5,000
likely
OL
▁missiles
▁particle
▁withdrawal
▁interactions
ensis
▁libraries
When
▁orth
▁bones
▁doctors
▁Springfield
lend
▁Ran
▁resur
▁1965.
quet
▁rivalry
▁sailing
▁Shop
▁Dy
anti
grand
▁welfare
▁preparing
▁reconc
▁customs
▁3,000
▁Strat
▁united
1/
▁graphic
▁membrane
▁planes
▁bishops
▁statistical
▁pace
▁trips
fan
▁irregular
▁Performance
airo
▁salary
▁aside
▁laser
mail
canic
9).
green
▁Sussex
▁Presbyter
▁Academ
▁proven
▁Lex
▁Dynasty
▁Amendment
▁raw
▁knows
▁Capitol
▁Bark
▁reass
▁1953,
▁Jen
▁Jamaica
onnie
▁holes
▁Maurice
▁mask
▁Sou
▁frust
▁balls
▁sitcom
uclear
▁Commerce
▁inclusion
half
▁Arist
▁recruit
▁Lisa
▁parad
▁Nigeria
▁Vern
▁grows
▁Glou
ulates
▁Exped
ometown
Mad
▁poster
▁Á
▁Chancellor
prises
▁clothes
▁mysterious
▁uncon
▁retrie
▁aggregate
▁por
oline
▁Faculty
▁antib
▁trick
▁AF
Music
▁choir
▁Finance
▁Private
ctorate
ás
▁Tab
▁fier
rier
▁Ambass
isch
ashire
▁lectures
▁Thames
▁Simpson
▁talking
▁lib
▁1964.
▁errors
▁Foot
▁Emmy
▁Jerem
▁NATO
▁Franz
▁Princ
▁disputed
▁panels
▁tribal
▁learns
▁goddess
fol
icia
elong
aft
lies
Oct
▁Stage
net
▁Punjab
▁Cardinals
word
▁Apost
▁Hav
empor
▁accordance
ordinary
▁gates
▁hosting
▁mansion
ods
▁1966.
▁advised
How
▁proclaimed
▁Fat
▁Tax
▁founders
▁recreational
▁Ess
▁Chair
▁confirm
East
▁Kate
▁aster
inas
▁repairs
▁garrison
▁flower
▁marketed
▁SE
▁eighteen
▁twentieth
▁dialects
▁Davies
▁strings
600
▁competitors
aternity
▁mythology
Aust
▁Dame
▁psychiat
▁orientation
▁strikes
oque
▁HMS
▁Pink
▁diocese
▁rook
▁('
▁carved
▁songwriter
IM
▁Lac
▁neighb
dem
▁Lomb
▁imported
▁navy
ilo
▁33.
▁Suff
▁rings
▁longtime
▁Tampa
kar
▁2"
ław
▁handled
▁Sak
▁medic
▁institute
▁consideration
▁XV
▁1938,
▁undertaken
▁allied
▁Windsor
▁Agriculture
▁Palestinian
▁Cec
▁boarding
laws
▁quart
▁complicated
▁equations
▁Lithuania
August
▁Bak
▁1952,
▁VIII
had
▁Edge
▁shallow
▁encourag
▁copyright
ikes
rowing
▁pounds
▁Laboratory
▁Chelsea
iking
▁Wednes
racks
▁Powell
▁Pine
▁utility
▁vinyl
▁Andrews
▁accus
▁circles
angelical
▁1906
▁Without
▁scattered
▁Lak
▁Kingston
▁girlfriend
▁considers
▁Sz
▁Mercury
▁Lancashire
▁preceding
▁shelter
▁Subsequently
▁wreck
species
rians
▁Surrey
estrian
▁reads
channel
▁Parks
▁Environmental
oves
rament
▁predicted
▁craf
cyclop
▁watching
Ju
▁1905
▁Giov
anne
▁continuously
Brit
▁finger
▁pig
▁contrad
▁renovation
▁Highland
▁61
▁labels
role
▁filter
▁gathering
RL
▁Pom
ooks
_3
eme
asian
▁reserved
alions
▁Woods
▁Jin
▁guards
itory
▁aerial
▁0.5
ublished
▁Kor
▁Tree
atchewan
▁Venezuela
isive
aca
appa
▁pilgr
▁deterior
▁preservation
▁Machine
market
▁mechanisms
▁Canterbury
8).
oku
▁ingred
▁academy
▁Š
▁harbour
▁dimension
GN
omical
▁investors
▁cataly
▁Marines
Let
▁fires
▁Contemporary
▁humanity
72
▁epic
▁unanim
▁feeding
▁Actress
▁Milton
▁explicitly
rah
▁Agre
▁Calgary
▁Reich
aiden
▁Critics
Sec
▁quarters
guard
USA
▁topic
itative
▁fare
just
▁taste
▁elaborate
▁arist
imen
uros
▁0.3
ete
▁Mario
▁reliable
▁specimens
▁divide
▁Darwin
▁defines
atorial
▁exercises
▁millions
▁questioned
▁cere
tz
issa
▁sizes
▁Liv
▁lasting
▁weekday
▁Stockholm
▁advocated
this
▁Creat
▁raids
▁76
founded
▁harsh
▁Advanced
▁(194
▁conson
▁CF
gue
▁•
▁Actor
icit
▁XI
▁Cyr
▁vicinity
▁leather
▁apprent
▁embarked
▁159
▁server
Sch
bank
▁Colin
heric
▁manor
▁condemned
usually
▁undergo
▁geographical
▁slot
ymph
National
▁lease
▁interven
hurst
▁Dund
▁bombs
▁acceptance
▁achievements
▁scar
▁marking
▁Aven
azi
quin
▁philosophical
GC
▁Churchill
▁destroyer
▁Clif
▁gameplay
LB
▁Prussia
▁Flying
▁premier
fold
odium
North
▁Basil
▁tension
▁wildlife
▁CIA
▁Arsenal
▁explore
plane
ilater
▁Krist
liminary
83
▁factories
▁enhanced
airy
▁Homer
▁mammals
reens
▁Inv
▁hide
yd
▁tong
▁Palm
▁item
▁smallest
furt
▁Worth
▁hometown
▁Jur
▁spelling
▁Progressive
▁settings
▁Kill
▁capability
▁consciousness
▁northwestern
▁councill
▁shed
▁vig
▁suffer
amped
▁cann
▁Sudan
▁Saskatchewan
instein
Rock
▁1:
▁Preston
▁rolling
▁Hull
▁refuses
▁nominations
▁successive
▁AFL
▁mph
▁Doc
▁cant
▁surpass
▁diagnosed
alam
leyball
▁creator
ylan
▁Tiger
▁loved
quarters
▁CS
irie
▁Prague
▁subord
▁700
borg
dire
modern
▁Canyon
▁deployment
▁Depression
▁Geneva
member
▁Laura
▁destroying
▁journalists
▁Comedy
▁Basin
isle
ellar
▁plas
▁Hi
▁Rif
▁Duncan
▁heter
▁presum
▁arguing
Ste
gio
inos
▁trails
76
criptions
▁lifestyle
▁Site
ema
▁poets
ña
▁Plymouth
▁navigation
▁entreprene
▁hotels
▁southwestern
▁autonomous
▁rehab
▁protagonist
▁termed
rising
▁Wednesday
Old
▁Herm
▁exploration
▁Railways
▁Clear
record
▁dinner
él
▁socialist
▁neur
▁Canton
▁mirror
▁reader
▁acclaim
▁reper
▁imprisonment
▁Scots
ioned
▁Cort
▁mature
▁voyage
"".
▁Mathemat
urse
–15
▁marri
▁Heaven
number
Ab
iman
▁cabin
▁floors
▁believing
▁demonstrate
vation
▁AL
how
▁contend
arians
arin
▁Kas
abling
▁Raw
▁Manila
established
orms
istence
▁revolt
▁congressional
▁reviewed
▁Compan
▁conversation
andin
ussian
electric
▁Testament
▁Google
orrect
▁Aub
▁breath
▁preventing
▁Cypr
▁Ellis
▁Bears
▁tob
pending
Tr
iar
▁opens
best
unal
▁manuscripts
▁Ster
▁Globe
kan
▁gla
▁rendered
BL
iox
agram
monton
ieu
▁spacecraft
▁CH
▁Mang
▁bounded
human
▁speaks
▁Nixon
▁(1,
▁Expedition
▁collecting
▁Lancaster
▁Plate
▁Cust
▁3.0
six
▁favourite
▁Visc
▁Chapter
▁formats
ints
▁Parliamentary
▁Bran
▁intend
▁surrendered
▁companion
▁commanding
▁assume
▁runners
▁Kur
▁truly
▁agreements
▁renovated
▁planted
▁gam
▁Harbour
▁Warwick
▁tables
▁remarkable
▁),
▁Faith
▁Rhode
▁slopes
anskrit
▁ramp
▁Chin
oyle
apa
▁Richardson
IF
▁furniture
▁automobile
▁bordered
▁impression
▁controlling
▁Hous
▁explored
▁1944.
▁ceremonies
enia
▁rubber
qual
Cap
roat
▁1951,
▁Cord
▁dealt
▁lacked
umm
▁incidents
▁innovative
▁decay
▁tet
▁neighborhoods
▁Laz
▁fed
▁headquartered
▁Luxemb
agers
▁activists
▁Aj
▁Eff
arium
zyme
aru
▁Burton
▁nerve
▁reservoir
CAR
San
hart
imer
▁Drama
▁Bloom
▁tributary
inda
▁edges
▁Athletics
ribution
▁moments
▁performs
ifax
▁Devon
▁ESPN
▁chorus
▁nationalist
▁Flow
▁1920,
▁Porter
▁Bradford
▁Aboriginal
▁overth
▁Hunting
▁100.
▁parishes
▁Wesley
▁1907
▁draws
▁dense
ptic
▁Bohem
▁agrees
▁radi
idelines
▁Antar
▁voices
▁Louise
▁barrier
▁overlap
usa
Good
▁Solomon
▁Plaza
▁tune
▁accidentally
gener
isers
▁trucks
▁upcoming
▁Cyprus
bin
▁Qual
▁Mik
▁Cann
▁grammar
▁Haven
▁discussions
▁vulnerable
▁aftermath
▁consumers
OW
Par
seat
than
film
▁Cardiff
haul
▁treas
ipeg
▁Dud
▁assignment
▁resolved
!",
▁Meg
▁guided
iblings
▁Anat
▁exhibits
▁unlikely
▁1–0
ursday
▁Additional
▁registration
▁Hod
..."
rene
▁Universe
▁developer
▁consort
IL
▁pub
▁genres
▁ware
▁Fighter
▁drawings
71
Cent
unication
Bar
▁Fraser
▁lessons
▁Miguel
educ
▁Kenneth
▁Esp
▁XX
▁availability
▁Memphis
▁Ug
▁urg
▁Estate
osaurus
▁Georgian
▁enormous
hears
▁Alexandria
▁invention
formed
▁divine
▁rises
cussion
omi
▁Princeton
▁1917,
▁humor
▁barrel
zig
▁epit
▁Weekly
▁carb
restrial
▁spur
odyn
▁interim
ufficient
▁armor
▁Azerbai
▁Ober
▁Gerald
▁geometry
▁simul
pus
▁Kem
▁hamlet
▁Portsmouth
Little
▁fossil
▁1936,
anthrop
▁boxing
▁exempt
iu
▁substit
illon
uxiliary
▁amalgam
▁Henderson
▁Twenty
▁counted
▁Outstanding
istle
DR
▁Beh
▁Spect
▁Mobile
▁Kenya
▁gly
▁Ced
▁Vladimir
▁Future
▁Hamburg
▁Provincial
Pol
nan
ournals
▁rally
▁healthy
walk
▁admission
▁Cave
▁seating
▁feather
bek
▁sponsor
▁Johannes
▁Lucy
▁Trin
▁Citiz
▁blocked
▁introducing
▁×
offs
▁AN
▁Constantinople
ught
▁Safety
abe
intendent
rish
▁Annual
oan
▁Blair
Brien
▁parade
▁brands
▁fiber
ogical
▁knocked
▁1937,
▁Wildlife
▁Hir
▁mechanics
▁lig
▁Volunte
▁stepped
▁attractive
ifferent
▁alumni
▁cream
▁styl
▁Baldwin
etti
▁ballot
alla
▁Zhang
▁Baby
▁measuring
▁unemployment
ilogy
▁McN
▁Morrison
▁Sometimes
▁Middles
▁entities
▁disorders
antle
▁artifacts
amation
IR
rels
umble
apest
▁André
▁suppl
▁Belfast
▁lens
▁101
▁Angels
▁1904
techn
▁Rib
▁Claud
▁proceeds
Que
otypes
▁overcome
▁organisms
▁Lost
card
pay
▁Cly
▁ensemble
▁smoke
ductive
occup
▁Mull
▁cruise
▁Number
▁Bosnia
▁Marcus
▁constitute
Har
▁Cros
ilda
▁merchants
▁measurement
tor
onne
agonal
▁prominence
▁Schw
▁quantity
asted
iago
▁mud
ussels
▁Watch
PM
▁Musical
▁1960.
▁$6
laus
▁auto
osure
▁dust
▁Miles
▁openly
▁priority
oux
▁abstract
apur
▁172
▁Dow
▁journalism
awk
▁din
▁Presbyterian
▁Allan
▁Bradley
▁cub
▁rape
▁inherit
▁Qing
▁Easter
▁1963.
▁beings
ommission
▁payments
▁cylinder
▁conspiracy
▁Prison
▁strictly
▁AB
▁ERA
▁Agreement
ostic
▁Reynolds
thood
▁unity
▁fiscal
74
▁fract
▁35.
▁20%
▁paras
▁terrorist
▁persuaded
orge
▁bind
▁Stalin
92
along
▁Aires
▁Rank
has
▁hur
adic
▁Literature
▁investigated
73
▁modes
▁RA
▁qualification
▁cer
June
▁Doug
▁Rah
▁Forum
▁Reagan
▁Ambassador
▁Americas
▁Aur
▁counts
▁exhibitions
▁Leop
▁gravity
jud
PG
ungle
▁facilitate
edo
comes
▁Blake
▁heroes
▁screenplay
▁158
▁20,000
▁Ach
family
▁tobacco
▁quantities
▁Naples
▁Grande
▁Shield
▁Being
olithic
▁CB
▁avoided
▁Rovers
ovsky
▁Yet
▁wishes
▁hostile
acing
▁chassis
UN
eps
▁drunk
▁Carroll
▁fung
lave
▁Balk
▁congregation
liter
▁meth
▁Chase
▁ignored
anium
▁trace
iaz
▁complexity
icester
-"
▁Fig
ocene
▁intens
▁fusion
▁Ulster
▁Va
▁Monroe
▁Mü
ovan
▁Dayton
▁Ley
▁reflects
▁Recon
▁conferences
colm
▁implies
▁Dh
▁fortune
▁GM
rano
inded
▁precise
▁volcano
▁Beaut
osity
thlete
headed
ettes
▁Path
▁Malta
sup
▁82
▁missionary
▁Kurt
▁Edmonton
▁Winnipeg
▁brut
▁Original
▁quit
▁1914,
▁Ranch
▁Glenn
▁atomic
▁pel
▁Ming
▁Quest
GBT
▁Batman
▁1909
▁Speaker
immer
▁spawn
▁regiments
▁Statistical
▁differential
▁Wend
ometer
▁Kol
OM
▁pine
▁ascend
▁Crystal
▁Hopkins
▁continent
▁Bedford
▁instances
▁Kun
▁demo
ximately
▁tends
▁locals
▁interference
etry
apor
hematic
▁1962.
▁wished
▁feels
▁Core
▁achieving
God
▁Link
▁Peak
▁Sebast
▁crashed
▁Armenia
▁possessed
▁Raf
ighthouse
SL
▁Task
ardi
▁discl
▁Rochester
▁lighter
▁apartments
▁Sherman
estock
▁fet
▁Relations
rike
woman
▁74
▁Bend
▁veterans
▁ST
▁protocol
Hung
▁98.
▁cuis
▁boom
▁Wagner
▁roster
blem
▁34.
▁mills
▁Clement
▁expense
▁adds
▁chess
▁Banks
▁transmitted
],
▁Burns
▁applies
insky
lando
▁bowling
▁Fifth
▁carriage
▁Adult
▁reopened
▁incorrect
▁Bever
▁Albany
▁gamb
rud
▁cha
▁Dob
▁pm
▁lip
▁glac
actic
▁depicting
▁Curtis
▁illeg
lesiast
▁flown
ylon
party
▁solve
▁pianist
▁Pon
▁cater
▁foundations
▁Gur
▁Indonesian
Met
Pres
▁interviewed
▁Lut
▁Eugene
▁nobility
▁Manor
warf
▁Films
ocate
▁Halifax
▁Buenos
ynom
▁frequencies
iw
▁Was
▁162
▁Theodore
▁foods
▁Bailey
enary
oning
▁Brighton
▁marsh
▁1919,
▁dressed
▁icon
lat
lide
▁Bryan
arel
▁trophy
▁1840
▁Sisters
▁Fra
▁Carne
▁Gren
normal
▁revers
96
▁apolog
▁teachings
ainted
▁careers
▁ol
avor
▁exceptions
▁propri
beit
▁photographer
team
▁RNA
uin
▁Pand
▁Founded
▁mad
urities
▁1933,
▁diving
▁Nak
▁Against
▁saving
▁Glass
▁Devil
▁Thursday
▁siblings
▁"-
▁loose
▁pollution
ér
▁Terminal
addy
▁Nas
ding
plus
▁replied
unciation
▁massacre
▁Cu
▁Hood
store
neum
▁Finals
▁assert
▁novelist
even
iously
▁Economics
▁fights
▁perception
Enter
▁genera
▁harmon
hibition
▁topped
▁Bavaria
mile
▁173
▁graduates
▁Fun
April
OP
▁Historically
▁console
▁eliminate
ixed
▁Given
▁measurements
houses
▁alignment
▁saint
▁Travel
▁unveiled
Mal
ahu
▁maneu
main
EM
alid
▁jointly
▁Caesar
▁amendment
▁Level
▁Nepal
ficial
▁Dylan
▁custody
▁monitoring
▁Software
cot
▁Rhine
▁McDonald
▁theor
▁strategies
▁Num
')
▁73
▁WB
itars
▁viewing
istically
psy
▁relegation
▁71
▁1800
▁sphere
▁Writing
▁thesis
▁Chad
▁ultimate
▁1903
▁Robertson
▁digit
▁ancestors
sal
▁Herald
▁Giovanni
▁Sicily
▁subspecies
▁Voice
▁loud
October
ependent
▁Scandin
rone
▁kiss
▁Fergus
ifiers
government
▁Maxim
▁descended
▁protecting
▁HIV
▁contracted
▁1935,
▁PhD
ayette
fin
▁Piet
▁Richards
▁Brid
▁categor
▁sor
▁Mold
▁deer
▁coined
War
▁antiqu
ignty
Ed
▁detected
▁heating
▁chains
▁BA
▁depot
Gold
pp
▁Cavalry
▁linking
▁commerce
Int
antom
▁96
▁Mam
NP
▁Nathan
▁disgu
▁trademark
▁seemingly
▁163
▁declaration
▁correl
Hist
▁extract
▁RT
▁thread
▁Sene
▁affiliation
▁Salvador
mud
inders
▁pump
▁comprised
▁50.
▁Shadow
800
▁Harm
▁valve
cule
illiant
▁erupt
▁substantially
uzzle
▁correspondence
agne
▁171
▁discipl
DT
▁GP
Rol
▁loos
gae
▁Yard
▁tent
ymes
▁mystery
upe
▁rescued
chem
▁bombers
present
▁Julia
▁modest
▁Juda
▁biology
escope
▁comparable
▁MHz
▁Mine
▁coeffic
▁presenting
▁Folk
▁Presidential
▁maternal
▁Brussels
agi
Per
▁receptor
▁1946.
▁epid
▁critically
link
▁crews
▁Own
essa
▁Catal
▁1901
▁trustees
▁performer
ampire
▁Publishing
▁ho
▁witnessed
▁promotional
▁physi
▁entries
comp
▁disputes
EL
▁annexed
▁97.
▁Montene
▁Deb
osystem
file
September
▁worse
▁beaches
▁tendency
▁volcanic
▁activated
▁journals
ahan
▁Coalition
▁canton
▁Linux
▁Baltic
▁luxury
▁Justin
▁Veter
▁enacted
July
▁distances
▁Dim
▁convoy
▁murders
▁Serie
▁respected
▁chore
ilib
▁Obl
▁sixty
▁endorsed
▁Cos
▁Yuan
▁Indo
▁rely
▁climbing
▁Morocco
▁1930,
▁freeway
▁Zimb
▁Champ
▁anywhere
pie
▁tickets
inguished
▁Hes
▁diagnosis
▁streak
▁dup
kinson
▁Blu
▁anx
opy
▁Troy
▁disappear
sim
▁Newman
▁gest
▁Moor
▁bitter
▁Edgar
▁Idaho
▁propaganda
▁Saw
▁sacrifice
▁disabled
▁LA
▁Hayes
bol
elly
▁mock
Ant
thel
ilitation
▁Gö
▁inaugurated
▁Mail
▁pier
▁precipitation
enzie
▁loans
aze
adal
▁tract
▁sophistic
▁architects
▁USSR
▁schemes
▁desk
▁Scholars
▁fragments
▁1902
Char
▁Parkway
▁parameters
▁directing
▁practition
▁bits
▁wheat
▁managers
▁tubes
iem
▁lover
holder
▁tackles
▁pregnancy
▁emigrated
▁loaded
ocaust
▁motif
▁whatever
▁Dw
▁blog
▁catalog
▁happens
▁vowel
▁testimony
▁execut
▁Unfortunately
▁Hass
▁Bord
▁pursuit
▁Leicester
▁sax
achers
▁opinions
GS
▁honey
author
▁cott
▁polynom
▁Arms
▁sends
▁Weather
▁differs
▁ethn
▁Episcopal
▁Aberde
ndon
▁Individual
alous
-16
eno
▁gentle
▁Guards
▁enthusi
▁allocated
inks
▁Santiago
▁examined
▁eleph
dig
istance
▁1942.
▁1961.
▁default
▁2.0
▁railways
▁Hil
▁acids
▁demonstration
▁batteries
▁resemble
▁Myster
▁Luxembourg
lamm
▁98
rh
Will
Out
▁Dew
▁adm
▁Ana
▁Movie
▁depicts
▁refurb
ango
▁Empress
▁limestone
▁relax
▁pipe
▁que
▁Hors
▁Fantasy
▁singular
▁binary
▁favorable
▁Cao
▁nitro
▁abolition
▁Slovakia
▁Kerala
▁Hut
▁Duchy
▁witnesses
▁contents
asium
▁listing
▁Dominican
▁Qur
playing
▁boxes
▁objectives
osion
▁Sikh
▁Mick
▁busy
▁responses
▁Pos
iker
▁vend
lord
▁walks
▁Southwest
▁battalions
▁investigations
Go
▁consultant
▁Factory
Blue
▁traced
Os
▁cloth
▁unsuccessfully
▁Diet
Em
▁Vil
▁Train
European
▁ally
▁committees
▁penn
▁Cambod
▁endangered
▁loyalty
▁costume
enhagen
▁Malcolm
▁upgrade
▁SH
gard
▁reconnaissance
foundland
▁Month
atsu
▁favored
▁pret
5).
▁riders
Day
hey
▁organize
sometimes
▁Greatest
▁supposedly
▁inex
abwe
▁Sle
▁Engineers
Sat
▁Sul
atham
▁Leslie
▁verses
▁challenging
▁1934,
▁Consequently
▁vine
▁cluster
▁religions
▁Institution
▁Pir
avier
▁Sanskrit
▁cig
ém
▁dispos
▁platinum
English
▁summon
▁Ferry
▁Tat
▁Aircraft
▁attractions
erical
artime
▁WA
▁Ghost
EN
▁79
▁Wei
itively
▁finale
▁secretly
▁detection
▁(201
▁liked
▁scales
▁fraction
▁Marshal
ocial
▁2.9
ados
▁semif
ensen
▁colonel
▁Buddha
▁Adrian
▁ordained
▁knowing
vas
ensed
▁Quarter
▁knight
December
▁elderly
aternal
)",
▁na
▁proceedings
etics
▁Berm
▁photos
▁Wee
▁Often
▁profits
▁preliminary
school
running
wald
▁Moss
▁sunk
▁Strait
uchi
▁0.4
▁spelled
▁pink
▁audition
▁judgment
istani
▁Sacrament
▁oak
addle
▁seasonal
▁Sold
▁Current
Af
▁Paulo
▁trigger
Japan
▁sectors
iolet
marine
▁cord
▁1940.
▁submarines
lore
▁1830
▁infant
▁Decl
▁Gem
▁Half
▁trump
▁Arctic
olves
▁Large
icz
▁Belgrade
▁cort
lis
Her
▁monarchy
atem
▁facts
▁gains
▁Gaelic
▁radius
titled
there
requ
▁geographic
verage
▁cease
▁decree
▁throwing
smith
rible
▁Chuck
imental
erek
▁advisor
▁Ign
herd
▁hect
▁seeks
▁syndicated
▁1948.
▁Hampton
▁cooking
▁Reid
Great
▁Chal
▁licence
may
▁feared
▁Greeks
atty
▁intact
EG
▁Ahmad
communications
jections
▁lots
▁spotted
oche
▁comedian
▁informal
▁vacuum
isure
▁commanders
zens
▁Crom
▁Billboard
▁sued
▁qualities
▁supern
▁contacts
▁combining
▁tornado
▁memories
▁rod
advant
▁Stafford
omers
avilion
▁trapped
▁Amy
▁complaints
▁hind
▁atoms
–12
City
▁1929,
▁dropping
▁celebrations
▁Hack
books
icals
illance
▁recreation
2/
▁skilled
▁museums
isha
▁kin
▁interf
ylum
log
▁Linda
▁40.
▁sid
▁Sex
▁warned
▁attributes
▁enterprise
▁1941.
▁shells
▁reinforced
▁Eg
▁urged
▁anarch
▁marble
▁noticed
▁similarities
▁angry
▁traces
▁Phot
▁cit
▁LGBT
▁Newfoundland
▁delegates
▁Vale
▁Legislature
▁Chev
cs
▁leased
▁diamond
▁Julius
▁harass
▁laps
actor
elfth
▁kids
▁tonn
▁superm
▁countryside
▁grandmother
SM
▁interred
Comm
▁bold
luence
▁cognitive
▁rookie
▁Cohen
▁Gospel
▁Popular
oko
▁advances
▁conve
▁Cel
▁(2000
heads
sing
▁Rocky
Port
cover
▁premises
▁Rachel
▁Aw
▁convey
▁Knox
▁servant
ogg
▁Brent
▁decommission
▁Cred
▁accompanying
▁Johnston
▁(193
illas
▁incarn
mag
armed
▁1959.
▁motorcycle
▁utilized
▁Europeans
▁Marion
▁Grammar
▁Bronze
▁essays
▁legitimate
▁excessive
▁marginal
▁105
▁walked
icult
▁Complex
wrote
▁rebel
▁buying
hot
▁readily
▁shipped
▁Commercial
kers
².
isely
▁Hugo
▁Mumb
▁robot
▁Tir
urally
▁Lap
▁garn
▁sovereignty
▁harvest
▁suggestion
▁Made
▁editing
▁WWE
▁Bea
arriers
CP
...]
▁peas
▁6–
▁preceded
▁Dum
▁farmer
▁maritime
▁creatures
icus
▁Gamb
▁Minne
▁backup
rugu
▁Talk
unnels
ographers
▁Interior
▁desper
▁Zimbabwe
▁Kerry
▁bigger
▁offense
▁nucleus
mal
▁Emma
▁Belarus
▁Orlando
▁reson
rified
▁accounting
▁Picture
▁bicycle
▁ov
issued
▁Syrian
asis
▁frames
▁submit
▁certificate
ounters
▁Allies
▁reversed
spring
ammed
▁gray
▁aggress
▁dys
▁Proper
4/
lesiastical
▁cement
▁Lay
Des
▁evaluation
▁overwhelming
▁cruiser
▁presenter
▁tactical
▁supervision
itorium
▁Mis
November
▁Fernando
▁ease
▁admit
▁Calvin
▁Cod
eting
0,000.
▁Drum
▁Metal
▁freely
▁equality
▁killer
▁gig
umen
aji
▁fo
▁modifications
▁amid
▁Harper
ambo
▁defender
▁Athen
▁Burke
▁Tru
▁tongue
▁celebrity
idan
▁Augustus
▁electronics
ugu
▁realm
▁prefix
▁Colony
▁obtaining
▁Hoff
▁Artists
ashing
▁Dart
▁coordinates
▁bowl
▁Jak
lings
▁excluded
High
adio
▁Hul
▁Adolf
bat
▁fruits
▁crypt
▁crowned
daughter
▁addresses
▁missionaries
▁satir
▁Ahmed
▁approxim
odied
Sal
▁81
▁Potter
▁Crawford
▁Liberation
See
▁Gent
▁precurs
▁reduces
▁incorporate
roup
roleum
▁Lynn
atri
▁imper
▁Imp
gov
entin
▁classroom
▁Peng
▁Shi
arity
▁shortened
▁violation
▁bund
anche
▁Ard
▁portfol
cin
▁maj
lesh
▁Ec
▁Falk
▁Rural
▁Rather
▁folded
▁projected
oya
▁Fo
▁Ost
▁Browns
_4
ivate
▁invested
▁corporations
▁Gates
That
▁Logan
▁Prussian
▁reflecting
him
rews
isi
▁dil
▁optional
▁scout
Los
founder
▁momentum
▁keys
▁Natal
▁encounters
▁Archae
▁suffix
▁1956.
▁Superman
▁Neg
▁cooling
▁translations
▁enlarged
▁enzyme
▁reformed
beck
▁displace
▁delegation
▁dens
▁Martha
▁machinery
▁outlets
▁dollar
eterm
▁abbreviated
3/
atial
edded
▁Louisville
cliffe
dec
▁sponsorship
▁adventures
▁wards
2,000
▁Store
▁holder
oved
▁abortion
▁1947.
▁Brom
▁holy
▁caf
▁tended
▁trem
▁Kurd
▁87
▁councils
ilee
▁routine
84
▁invitation
▁1958.
"("
ilateral
▁metals
▁Planet
▁Observatory
▁36.
▁rows
▁Carnegie
▁Betty
▁accomplish
▁steady
▁floating
▁Et
agnetic
▁strange
elsen
owner
UK
▁accommodation
January
▁communicate
▁unst
▁Diana
▁lifted
▁Ellen
▁Tunnel
▁Kang
ourable
▁Barnes
amination
▁Frankfurt
loo
▁Bil
▁endemic
▁Caroline
▁linguistic
uity
▁16-
▁cass
rition
▁Copenhagen
amer
allow
▁notorious
▁Shen
▁averaged
zon
▁finest
▁emissions
oping
cestershire
▁nervous
▁IN
▁casting
enic
oken
will
uesday
▁Warriors
▁Lynch
▁Midland
▁toxic
▁Scouts
▁betray
▁dramatically
manuel
▁conviction
orum
▁Rever
▁accredited
▁Judaism
▁handful
▁autonomy
▁Indeed
some
▁Lyon
▁applying
▁François
▁Ved
▁irrig
vern
är
▁chromos
▁derivative
▁Wake
▁anat
▁Ng
▁mistaken
▁convince
▁brass
EF
rill
▁triumph
▁Thir
atisf
isode
Cal
▁Downtown
▁Adventures
▁constituted
▁degrad
▁phases
▁rounded
▁crystal
▁moist
▁servants
cond
third
▁Rele
▁enabling
▁Dock
▁Carey
So
▁Chrys
▁kitchen
▁Lon
▁Pitt
▁parody
▁Kenny
▁cannon
▁livestock
▁broader
▁terminated
▁Paramount
esian
▁Mechan
▁touc
olving
▁marched
▁obs
ipping
▁8-
roft
▁editors
▁Kw
▁workshops
▁ISO
designated
▁combine
▁2:
▁nevertheless
▁staying
good
▁Pars
▁Charleston
▁villain
▁mascot
▁Treasury
▁Lic
▁recommendations
▁Competition
▁Baronet
▁romance
▁stom
▁destinations
▁alk
▁ceremonial
▁percussion
▁realizes
orted
▁sovereign
▁Trek
▁blend
ducer
▁Plains
esses
ESCO
▁Mongol
hend
hou
mart
▁Kiss
▁organs
▁uniforms
94
▁Sinc
▁flowing
▁cuisine
▁owing
▁puts
▁vacant
▁goalkeeper
▁publicity
▁carefully
uta
▁aided
82
05
sover
▁Cert
▁Opt
▁Parad
▁2–0
▁tough
▁specially
▁lengthy
▁Turks
▁wartime
aceut
izable
▁metabol
orig
▁Ethiopia
▁vacc
▁athletics
▁6-
▁stint
▁Griffith
▁hiding
▁appealed
▁advancing
▁watched
▁bomber
▁152
ertiary
say
▁Madonna
▁demanding
▁descendant
.).
▁deceased
▁Loren
▁prosecution
▁1932,
▁Russians
▁promising
▁interrupted
atican
▁innovation
Just
acking
amph
▁Notre
▁diox
▁purely
▁Classical
▁mere
▁computing
▁84
▁Ig
▁mood
cyl
zan
Art
▁strongest
Top
▁Tunis
ocolate
▁limitations
▁1943.
▁Rodrig
▁paved
uku
▁doctorate
▁paths
ushes
ended
▁complement
bot
ubble
▁dancer
▁generic
▁oversee
▁fran
▁coupled
.),
isdom
▁dorm
▁springs
▁92
▁Southampton
▁Industries
umping
▁donations
▁Scientific
arthy
▁frog
▁dissolution
ongs
81
▁bout
▁Dorothy
▁carn
Dr
▁facto
adows
▁Urugu
▁artic
▁inception
▁lacking
▁referee
▁tiny
▁forested
▁admir
▁frontier
olan
linary
▁monuments
zhou
▁contempor
▁retaining
▁1922,
▁summers
▁Airways
amy
▁wool
▁metric
▁Underground
idian
▁vault
▁surprising
▁amphib
abulary
▁totally
▁Emily
▁eaten
▁magnet
affe
▁Hence
▁clerk
ingers
▁1957.
▁thrust
▁mathematic
▁153
chant
agara
▁Saturn
▁Dion
▁Study
▁regulated
▁stair
▁119
▁rab
▁detective
BR
▁commentator
▁lateral
ogene
▁86
▁Cit
▁Cul
▁shadow
▁uprising
▁hol
▁disadvant
▁speculation
izers
▁RCA
▁habitats
matic
este
▁lunar
▁guitars
▁dwell
gedy
▁Tyler
▁99.
▁searching
▁Artist
▁electrons
▁narrowly
▁sad
amas
▁athlete
▁inver
▁vibr
reation
▁peaceful
▁1939.
rina
opoly
▁Crist
▁risks
▁expend
▁regained
▁Artillery
▁consumed
▁institutional
▁Elliott
▁provider
city
▁employer
songwriter
2.5
▁Wick
▁crafts
Roman
▁notation
ughter
▁slope
▁Brock
▁providers
▁rehears
ethyl
▁hoping
▁requests
anan
encia
▁Tall
▁stopping
▁Guang
▁mobil
▁metall
▁certification
anz
raints
▁Hels
onde
avelength
▁conventions
▁preference
nas
▁Gaul
▁plasma
▁Sweet
▁Concord
▁extant
▁Guatem
▁volleyball
▁Mumbai
▁115
▁commands
▁capturing
stadt
▁Marian
▁immigrant
▁1928,
TP
▁Berry
▁immune
▁24-
▁effectiveness
▁drown
▁Holocaust
▁bombard
▁145
▁Minneapolis
▁Eur
▁couldn
rust
▁Por
▁trunk
eo
erb
▁honours
ischer
▁Winston
▁weakened
▁partition
▁fails
▁1898
▁inquiry
▁Dj
▁advantages
quis
.<
▁Mā
▁Gustav
far
▁Marin
▁determining
▁Merced
▁hatch
▁blamed
▁campuses
ilibrium
▁1921,
▁stance
▁diff
▁Drug
▁Tradition
▁Total
uh
▁Led
▁voluntary
general
elihood
▁revenues
▁Male
aines
▁motorway
▁Previously
▁prolific
▁deliberately
▁Ras
▁Hindi
▁cra
▁Fiji
often
▁Concert
▁Pod
▁ore
ledon
kind
▁Cock
▁Lok
iliation
▁Principal
arsity
▁emotion
▁Writers
ratic
berger
▁Seminary
▁Streets
children
▁Tribune
ipel
▁Fellowship
▁sketch
▁Hardy
▁Albanian
ár
Every
ersion
FS
▁1896
▁1927,
▁Feder
▁triangle
▁sentences
▁Learning
▁cav
▁compatible
▁screening
▁symbolic
▁Viol
asan
onny
▁Ferrari
▁156
igate
öp
▁acute
specific
▁isolation
▁compromise
▁suppress
▁hunt
▁acceptable
▁keeps
▁catal
▁1950.
▁strain
▁tier
▁remarked
▁decisive
"",
▁Hale
▁plaque
▁Vatican
odic
▁reasonable
lance
fiction
▁Pros
chel
comed
▁develops
▁SO
ég
neys
▁Sed
▁nas
▁snake
▁motto
▁dign
▁adequate
▁Lav
▁torture
▁Colonial
▁Heavyweight
▁designers
▁Ens
▁resides
▁Index
▁Wolver
▁occupy
▁89
MD
▁Karn
▁(12
▁airports
▁everyday
▁Ari
▁).
▁canceled
itivity
▁meter
▁Access
▁sa
▁Tuesday
▁1899
aic
▁Kazakh
rica
wait
▁generating
▁154
Live
ogenic
▁Directors
▁expenses
▁explaining
▁sodium
▁Mile
▁Krish
▁instant
fig
▁swept
▁listening
▁seas
▁Senators
▁teamed
▁defining
dan
▁93
▁tales
10.
▁ric
▁hook
▁abundant
▁lawyers
▁Aberdeen
▁Nass
French
▁powder
lach
▁Ghana
▁Manch
▁Combat
thon
▁NSW
▁inflation
▁Quin
▁curves
▁struggling
▁Distinguished
▁Eye
▁approaching
,'
▁Willie
elic
thouse
aceae
▁Ibn
▁theaters
▁[...]
▁Trinidad
▁Lah
▁butt
▁Johns
▁lord
▁1916,
ramid
▁accent
▁thoughts
▁Recording
▁complications
▁nan
▁intelligent
▁altar
▁discharge
▁Kend
▁anthe
▁surprised
image
▁ster
▁gifts
arte
▁woods
▁dragon
▁organizing
PD
▁Rox
▁insufficient
▁Anders
▁compression
▁unified
cz
▁Norton
scill
▁Jesse
umped
▁Cool
▁Viscount
shot
▁1895
▁Lif
▁Rup
▁primitive
▁drainage
intro
▁remake
▁20-
▁Kids
astics
▁blank
pling
▁extraordinary
▁Word
▁weakness
▁undertook
Far
▁planets
iday
▁1885
▁Czechoslovakia
▁clause
▁Almost
▁cheese
▁96.
▁mistake
▁identifying
▁phenomena
▁contrary
▁Ludwig
▁halls
oub
ibli
▁Sang
unting
▁prevalent
nai
▁ceiling
ollar
▁conting
▁concentrations
▁Pract
▁creature
▁commercials
▁subdivided
keys
▁Deuts
▁asserted
urned
▁decom
iden
▁Clare
penter
▁Jennifer
▁accepting
▁horm
▁basement
series
▁remin
▁WN
Doctor
▁interval
▁Hawk
cope
▁Assy
▁Congreg
▁Lithuanian
Up
▁Greens
▁Northeast
▁Honda
▁Mob
▁uncons
February
idential
▁Edwin
▁peaking
▁aug
▁whereby
▁botan
▁1931,
▁complained
▁Karen
▁ideology
▁1955.
orian
▁1924,
▁melody
ographed
breaking
▁IA
▁Riv
▁1894
cross
▁Plain
▁borrowed
imeter
▁1949.
▁ecosystem
gic
▁mandatory
▁administrator
UP
▁warn
▁imply
unda
▁enclosed
▁Chiefs
▁fitness
▁Double
▁350
▁choosing
▁Vick
ubles
aston
▁juven
▁Cornell
Rolling
▁wicket
▁Cinema
▁tensions
▁1915,
▁lunch
isphere
hausen
iatus
▁quot
largest
▁Prefecture
▁dome
▁misc
▁technological
▁anger
▁colored
▁rack
▁posthumously
▁sacked
▁Philosophy
except
▁Filipino
▁instructor
▁Carlo
▁Theod
▁Oslo
▁mate
▁Morm
▁Hawaiian
amba
▁Kom
▁Lines
▁feast
▁Contest
▁Planning
:"
700
▁relied
▁Headquarters
▁commemorate
▁repeat
▁spirits
reshold
▁pension
▁antenna
▁MPs
▁80%
▁consequently
irable
▁Sugar
▁fro
▁destroyers
▁resembles
RNA
ivities
▁heated
ellation
▁Iv
idi
issues
▁valued
▁Ki
birds
▁Source
▁Ö
ilitary
wy
mand
vals
▁dances
▁Wilm
▁Zion
▁rabb
▁expectations
▁mixing
especially
▁blast
▁Heat
arag
▁Superior
▁negotiated
White
▁Confederation
▁NASCAR
▁Fork
▁sufficiently
▁bike
country
ritic
▁Contin
▁Cumberland
▁consolidated
tail
Pal
▁Money
▁ballet
▁narrator
▁valleys
United
▁retros
ithms
▁orch
▁--
▁shapes
▁37.
▁kit
▁Lig
anto
ulin
▁cran
▁revealing
▁dispat
▁Auto
▁ambit
▁civilization
▁Hort
▁correctly
▁publishers
▁ambig
93
▁Congo
▁wireless
▁Sinclair
▁attained
▁guidelines
raul
▁fever
WR
▁proportional
▁armour
▁brow
▁declining
▁initiatives
Les
▁AG
▁Lik
omas
▁Jamie
▁1925,
▁Ling
▁superhero
▁Maxwell
▁portrayal
ascular
vine
assic
▁sculptures
▁switching
▁Toyota
landers
▁bio
▁Coch
▁Sheriff
▁50,000
▁sophisticated
▁Flo
▁sailors
▁migrated
▁meteor
▁Sandy
▁Thomson
▁Working
▁wrestler
▁sear
▁Estab
mons
▁warrant
▁Inspe
▁heavier
print
▁beside
▁traits
▁troop
▁Jeremy
▁inscriptions
▁IF
▁adjoin
▁Macedonia
▁Claude
▁embra
▁sank
▁1926,
▁vit
▁lady
▁ancestor
▁philanthrop
9/
▁masses
▁Waters
▁Bagh
▁UNESCO
▁guerr
▁Advisory
▁presumably
inqu
▁Account
▁squadrons
▁stuff
▁Laf
lake
▁Prof
▁congreg
pired
▁Self
▁Floyd
▁1-
▁Kane
▁molecule
Ma
▁Cowboys
▁smart
rected
▁confined
▁revel
great
▁1954.
▁mes
▁1897
▁doubled
▁91
popular
▁illustrations
ochem
▁helicopters
▁4,000
rays
▁Sacramento
drop
▁Amazon
▁1912,
awi
urai
▁cultivated
▁1953.
▁embedded
▁90%
▁Patriots
▁Pakistani
▁Humph
▁continuity
▁(14
iks
▁Erie
▁wonder
▁unt
-1990
▁spl
▁oath
▁employers
neg
▁Hast
▁Generation
▁Azerbaijan
▁15-
▁plug
▁pottery
▁Bj
▁peripher
▁crest
▁anthology
Br
▁Instit
–17
▁Albania
–198
▁miners
▁40%
ricketer
center
Sy
▁observe
CR
▁Congressional
▁mast
▁conform
▁unofficial
▁sab
▁Constantine
▁lecture
▁damages
)".
elage
▁brilliant
court
▁SD
anor
▁remnants
▁Duff
▁warriors
▁83
▁1500
▁watershed
▁Sit
▁plum
▁dining
▁Hammer
▁rifles
▁Greene
▁tap
▁Mk
▁1910,
Neill
▁2020.
▁resolve
▁Wyoming
▁lane
▁Julie
▁taxon
liga
black
▁vegetables
annah
wid
▁magical
Sil
▁tunnels
▁displaced
▁Buckingham
▁corresponds
▁Nu
Austral
▁Official
jected
oco
igion
▁(185
▁recy
▁patch
▁infected
akk
▁GDP
▁asc
▁summar
aeus
ndez
▁batted
▁1923,
91
▁135
oces
▁Walsh
enton
▁loosely
Res
▁pupil
▁Slavic
▁Pirates
▁dioxide
▁specimen
▁collision
▁spectators
eros
space
forest
cence
hydro
-11
▁steering
mitt
▁lod
▁keen
▁wage
▁statues
▁WH
▁pir
▁arcade
▁garage
adh
▁wavelength
lable
▁embass
▁161
course
▁157
TO
▁starter
▁dozens
xi
onge
▁Screen
▁Pale
▁porn
▁Stern
▁NO
▁Randy
▁portraits
neath
▁Salem
▁Cay
▁timing
▁jaw
▁choices
▁polymer
Sax
▁Mé
▁1952.
▁emphasized
▁pneum
▁spare
alis
atics
▁unrest
cience
puties
▁elimination
▁broadcaster
▁Fur
▁Carson
▁authored
Ireland
▁successes
Play
▁executives
▁gre
Phil
▁reactor
▁Griffin
▁ID
econom
undy
▁Nac
▁ensuing
▁Speedway
Tube
▁Hero
▁sometime
▁Meyer
▁flexible
British
▁insect
▁Physics
▁breakdown
▁daytime
adequ
▁hierarchy
sworth
▁civic
▁100%
iseries
▁collector
▁explosive
▁cov
▁Manufact
ondo
▁Sard
▁Constitutional
▁websites
dor
▁Xbox
▁Sharon
▁infinite
▁incons
rosse
8/
▁Typically
igi
▁locked
pert
heimer
▁cultivation
rities
▁whenever
yll
▁yearly
▁inferior
▁Strong
▁Bren
▁thriller
▁winters
iad
▁traders
6/
▁Hundred
▁incorporating
aurus
▁360
athetic
ukh
▁hung
▁Rosen
erville
▁outs
▁pressed
▁Alber
▁$1,
▁silk
▁Norwich
▁Achie
▁ambitious
▁shaft
▁unre
▁mosque
lez
alli
urgical
5/
▁calcium
▁Resources
▁battlefield
▁38.
▁underway
▁Hert
▁dancers
▁ma
▁evolutionary
▁Gardner
-21
arf
isor
▁abd
▁Joel
▁beds
▁filling
▁Astron
▁Leopold
▁launching
▁Cycl
▁abbey
ometric
▁struggles
died
ska
▁97
anca
▁domains
▁bol
▁labeled
▁oscill
▁unconscious
▁Conrad
▁transaction
stanbul
mine
▁strips
uine
hole
▁barely
LR
▁module
imar
itate
▁Hear
▁Excell
TR
▁128
▁Normandy
▁Wit
▁Germanic
▁Sap
imi
▁Flet
▁isot
▁Philharm
▁invas
▁interrog
▁Hook
uttle
▁Tyr
▁physic
mentioned
controlled
▁Derek
▁formations
azar
▁lyric
▁Churches
iances
▁albeit
▁resided
Who
▁glob
server
▁ballots
▁Trip
▁Commodore
▁subscrib
▁prominently
News
auf
oots
▁1,500
▁affecting
▁hanging
▁CBC
▁engra
▁blacks
▁insurg
production
▁108
uria
bad
avi
owners
▁colleague
unted
▁fundra
▁assumption
▁Belt
eches
▁feedback
▁altogether
7/
wal
▁IX
olin
▁shirt
▁depr
iba
▁Nuclear
▁Lennon
▁midfielder
▁Wings
▁classrooms
▁Powers
▁Nazis
▁Cairo
▁reprin
▁wit
▁Programme
▁Patriarch
iane
▁lion
▁Vid
riction
▁Laws
▁Gandhi
ressed
▁conclus
▁deeper
▁instructed
▁AIDS
▁guarantee
▁Pain
▁settling
▁highlighted
keeping
▁Zen
▁1893
GP
occupied
enders
ructive
▁teammates
▁Nikol
clamation
▁declaring
▁2020,
▁interactive
▁pic
▁Klein
leading
▁*
▁spar
▁Syrac
▁disciplines
▁integrity
Pac
▁30,000
▁pleasure
▁Ey
▁revision
▁slee
ija
▁Wimb
build
Chic
▁bush
▁progressed
etz
eri
essing
▁Font
▁Jup
▁1889
▁1900,
▁SM
▁Overall
▁Soviets
dad
▁MGM
▁affects
▁Pé
ags
▁welcomed
▁deity
▁commissioner
▁ende
▁Yar
▁lac
yards
▁dors
church
erie
▁isn
▁collectively
▁Ferguson
▁2.8
▁princess
▁RC
ienne
▁Habsburg
▁descriptions
▁Jake
▁sculptor
▁overhead
emia
▁placement
▁Felix
▁nominee
▁scholarly
leigh
▁knife
▁specification
▁systematic
▁Rule
▁receptors
rea
▁unh
combe
▁analys
pike
▁peaks
▁regards
▁cameo
▁YouTube
▁Siber
▁liner
otta
▁hiatus
▁masters
▁Webb
▁motors
▁Fen
▁Virt
▁Bun
▁theological
▁slogan
▁branded
left
▁Cable
▁apost
▁skating
▁3.5
▁umb
▁proud
▁teenage
frame
EE
Tur
ablo
▁amino
▁mentor
▁locality
▁logical
▁dominance
atz
▁harbor
▁Guadal
▁gast
racted
▁Jackie
–197
▁Break
agogue
▁Whitney
▁overhaul
▁synchron
akov
▁sediment
plate
▁realistic
▁wages
▁Monica
▁Outside
nton
inia
engine
▁McCarthy
▁subscript
▁corridor
rak
▁rode
function
gia
olphins
▁engaging
▁factions
▁regulatory
▁Editor
elo
urable
▁Ya
▁rider
▁Burma
▁Very
▁Antio
▁nursing
▁demolition
loqu
▁fus
lint
▁Rip
▁securing
▁counterparts
section
▁Meh
▁Mits
▁shrine
oday
▁generals
▁Bolton
▁Chapman
▁prolong
.""
▁tuber
▁surveillance
▁purchasing
▁pocket
▁nitrogen
aza
pez
▁Cho
▁suited
▁motivated
▁cartoons
▁49.
▁monster
▁threatening
hell
▁Hits
▁rush
▁wholly
▁wounds
omal
▁Pam
orts
▁heaven
▁purple
▁Emergency
late
▁coordinate
▁reflection
▁Ce
bys
▁Statistics
Fran
▁nit
▁spy
rella
▁arise
▁precisely
▁900
changed
▁shoes
▁Jas
▁charitable
▁ecclesiastical
▁rushing
itational
▁realize
album
ulent
▁Jets
camp
Hol
▁governance
ingen
▁Bergen
▁sustainable
▁Ecu
rained
▁1918.
▁Kaw
▁chip
▁rigid
öppen
▁Monument
▁Midlands
look
jord
▁pursuing
omething
▁Ernst
utter
▁1892
▁enables
ogo
andro
▁Vernon
cies
▁Venet
▁employs
▁uncommon
▁compuls
▁rope
▁1951.
Jew
historic
▁erosion
ortal
▁competitor
▁monk
▁Dudley
▁palm
▁cycles
▁inserted
▁Chess
itical
▁Fiction
▁0.6
▁Criminal
▁steadily
▁Norse
▁encouraging
owl
▁Morton
▁garnered
▁($
▁Gross
park
▁Wimbledon
▁Laur
▁30-
rath
▁tooth
▁retro
▁Raiders
▁cheap
President
▁tender
▁trilogy
ithe
▁hurt
geons
▁equilibrium
Ital
▁statewide
▁subway
▁Dawn
utely
▁Chero
▁nurse
▁hazard
▁safely
▁memorable
ritz
usk
KA
▁semin
▁tracking
▁fountain
gree
▁bias
▁1.0
antastic
tailed
▁fulfill
FO
▁Geoffrey
▁natives
soon
▁Cherry
▁emergence
▁FCC
▁Guj
▁unm
ño
▁incomplete
▁Come
Lou
▁Syracuse
mentation
ogl
▁Patric
▁comeb
▁Chronicle
▁Agricultural
▁Maritime
▁Bene
▁18-
uni
▁Zoo
▁stamp
▁unrelated
▁tonnes
ectors
▁Boris
▁townships
▁fears
eur
open
▁True
irs
▁surg
▁playwright
▁Leaf
▁Sixth
▁joy
yself
limited
▁decommissioned
played
▁Employ
amar
▁colonists
eer
▁Liberals
mic
▁Genesis
▁penalties
andra
▁inch
▁decoration
▁definitions
▁Generally
▁£1
▁Mercedes
▁terrestrial
RP
▁Online
▁reef
▁Savage
▁Vikings
-1980
▁intra
▁Ath
▁AFC
▁Hour
▁sealed
heed
▁Reds
▁Heinrich
▁atmospheric
▁25%
▁Claire
arty
▁listeners
uga
▁Beyond
anic
▁Than
▁plantation
national
▁marriages
▁underwater
▁Suffolk
▁Dodgers
▁30%
▁Kens
▁contributor
avid
▁Drew
▁Glad
▁Cherokee
abi
▁recommendation
elyn
▁Sham
▁adul
imid
▁wives
arta
around
▁tackle
▁auxiliary
▁sexually
▁Recent
Daily
atro
▁fortified
▁Providence
–11
▁dishes
cylinder
▁$7
▁relieved
▁Volume
▁evacuated
heres
iza
gang
obic
they
▁Hew
▁Glor
▁Tracy
▁breakthrough
▁Lil
▁circuits
▁continuation
▁embry
▁Kre
▁Bast
vae
▁grace
▁Appeals
▁equity
▁archives
▁Schum
▁reminisc
–13
▁Pau
▁Table
▁Kot
Che
rape
adays
▁exceptional
vie
▁feminist
▁escal
▁Reformed
▁Tibetan
▁ingredients
▁thinks
irus
▁Bess
▁correspondent
▁Female
▁Vaugh
▁mim
▁chemicals
▁succeeding
▁comfortable
▁personalities
▁greet
▁48.
▁pastor
mith
America
▁talented
▁afterward
▁anticipated
▁Tin
▁Kashmir
▁lineage
19.
uana
▁opted
▁accepts
▁vest
▁Newark
▁contacted
Geor
club
▁HM
▁processor
▁strengthened
▁haul
▁Winchester
▁Notes
opt
▁ethics
▁atop
▁chord
uitar
nected
▁investments
▁Liga
▁vowels
WC
▁Coleman
▁94
▁Roads
▁Saxon
▁stamps
▁injection
▁scripts
▁dreams
▁granite
▁portfolio
▁Stories
▁subjected
▁relates
▁Vin
▁Oblast
▁birthplace
▁Ecuador
▁forbidden
▁operas
▁accounted
▁synthetic
▁Dul
▁Rein
▁postp
▁courage
▁button
oner
▁aspir
Grand
▁supermark
Down
▁delegate
SB
▁matching
▁Gan
aceous
▁Annie
▁Body
▁1911,
▁Conservatives
▁guaranteed
Mac
▁(2.
▁occupies
▁expired
you
▁celebrities
ropolis
▁Janet
▁holidays
▁Fields
▁homeless
nie
lif
Miss
Chicago
▁Fletcher
▁meal
▁treatments
▁commod
▁95.
▁Loch
▁mandate
▁Worcester
▁predators
▁Sib
▁1891
▁Twin
artney
▁(13
▁Hyde
▁Course
▁stripped
▁technically
asse
▁Mt
End
▁Kyle
▁cats
ophers
▁concentrate
▁maxim
▁MB
▁inadequ
▁profound
arrie
▁1913,
▁clusters
▁algorithms
▁mortality
ourage
kill
▁beta
▁Dee
unched
▁inspection
▁Vit
▁delays
▁Amb
▁reunion
▁teenager
ocide
▁Mom
▁inheritance
▁loses
▁attain
▁accessed
▁protective
osaurs
▁blade
inki
▁lamp
▁workshop
prising
▁Tasmania
toire
▁Kod
▁lengths
▁threshold
aniel
▁sanction
▁riots
▁Nath
▁Roland
▁tang
▁faithful
otti
▁Hawks
▁eagle
▁Joshua
▁Pav
▁Christie
00%
▁insign
▁banner
▁investigating
▁Yemen
▁Viv
ipelago
▁televised
▁muscles
▁Rey
▁Flash
–14
▁memoir
▁Nig
▁virtue
▁Sind
▁Sof
▁jumping
▁Boyd
▁merge
IAA
chair
▁Architecture
▁Und
▁Take
▁likes
wave
.",
▁slower
▁Colleges
▁51.
▁Sons
writers
VC
islav
▁stems
▁survives
▁Fan
when
▁Sag
izards
▁geography
▁Georges
▁demise
▁Pied
▁acquiring
▁Sidney
▁Single
▁cartridge
▁associates
grass
Not
horn
▁Clara
▁instruct
▁reside
▁comeback
▁Gol
▁observers
bons
▁electrom
▁grap
▁toy
▁mouse
LE
▁Border
▁publishes
enza
Ap
ardy
▁NH
▁Rosa
▁Quinn
▁discussing
▁visitor
▁bure
▁CPU
▁Cav
viv
▁displacement
▁expertise
▁1888
▁teaches
diocese
▁surgeon
▁insult
▁Below
▁unpre
shine
▁Webster
▁implied
bore
▁Jet
▁gaming
▁modification
▁noun
▁Hastings
uen
▁Iber
▁perf
▁finishes
ospace
▁angles
▁Convers
Conn
▁Agu
▁5%
▁toile
atile
ilingual
▁woodland
Cor
▁chim
▁Krishna
▁composite
▁Castro
▁Theory
▁Teh
▁Kub
erland
▁prints
▁inventor
▁privileges
▁conced
▁rituals
0%)
▁fut
▁reviewer
▁sponsors
▁minerals
clip
▁dent
▁plains
▁Kab
▁lith
▁wagon
▁KC
▁besides
▁negotiate
▁gluc
▁financially
▁inning
▁recall
▁retains
▁Okin
▁Resp
▁drops
▁aesthetic
PI
erner
boards
▁prose
▁legends
▁reinst
yt
▁Beau
▁rim
▁Booth
▁escapes
▁tin
▁Nonetheless
▁functioning
▁Summit
▁Strateg
▁showc
▁Fuller
▁PR
ringe
▁ions
▁rushed
▁Sutton
▁Lip
▁spreading
▁stomach
▁amended
Jack
▁interfer
▁Elder
▁Maple
▁Job
being
▁Lisbon
▁Declaration
eroy
elles
▁lecturer
kn
▁Rhe
▁kidney
▁charted
▁Things
▁acet
▁1938.
boats
▁commuter
▁Cecil
▁sleeping
▁imagery
del
▁Cran
▁109
▁pride
▁steal
▁Marcel
rowth
▁Impro
▁Alleg
▁avoiding
rongh
▁senator
▁Expressway
cery
rolet
rescent
▁pathway
include
▁Māori
▁pointing
Queen
His
▁Irving
▁Aristot
▁underneath
▁induced
wear
▁Hank
ør
▁Thur
recorded
▁enz
▁Adventure
getown
▁positioned
▁laugh
▁passages
▁brack
adia
ulative
▁liberation
▁professionally
user
▁Hern
▁Venus
▁inequ
▁Facebook
Bre
▁rectangular
▁preparations
▁Mant
▁Hanover
Night
irling
▁seventeen
elius
▁overnight
Nor
Ag
perm
▁Election
▁imaging
▁Dry
berra
brother
icularly
otherapy
Oh
▁Coff
▁Patrol
KO
▁constraints
▁Bundes
▁constituencies
▁1920.
▁Shawn
▁spont
▁Cele
▁confluence
▁researcher
▁Thanks
▁scrap
▁hex
▁riot
closed
utory
▁Samp
▁inev
Mag
▁highlights
▁Clan
▁buck
▁devised
▁emotions
▁taxi
zegov
▁Baroque
▁rotating
▁1.2
▁Amateur
▁asym
▁update
▁herald
▁feathers
▁Boh
plan
quez
▁Telegraph
Im
▁ey
▁dwarf
▁screens
▁healthcare
oos
▁prizes
▁static
phones
iston
▁Oliv
▁convenient
▁outlet
hardt
Sup
▁Howe
jective
MO
aye
▁Frem
▁persecution
ativity
▁Stark
▁repertoire
▁curved
▁Duchess
awks
▁Flem
▁fores
▁lifelong
▁Afterwards
▁confisc
▁Ace
▁anthem
▁ensuring
▁marker
▁orphan
▁los
▁mortg
▁herb
iggins
▁Population
▁Paragu
▁pseudonym
▁peers
fried
▁Sunn
▁3000
▁intervals
▁incorporates
▁violations
▁Bug
▁badge
▁Parade
▁combines
▁translator
jin
tem
▁Dre
▁precursor
eni
▁smoking
▁scorer
lessly
▁defeats
isans
ronics
▁Rid
▁Insurance
▁Cubs
shaw
▁zoo
posing
▁exempl
▁postal
▁pioneering
▁fraternity
▁UA
▁1887
▁neo
▁cycling
▁39.
▁Electronic
▁remarks
▁demonstrations
obby
president
League
▁twelfth
lot
▁accusations
▁Bram
▁Koch
▁tertiary
▁Neo
▁railroads
▁witch
▁Tud
▁rejoined
▁somewhere
oths
▁Jesuit
▁Kosovo
▁hectares
5%)
ducts
▁oriented
▁nationalism
▁undef
▁Ashley
▁Priest
▁Legal
▁Progress
▁Koh
▁Honorary
▁additions
▁Santo
3,000
▁Đ
▁(11
▁rip
▁armoured
SF
▁Clyde
▁differently
▁sanctuary
nian
entric
▁Mix
ending
ku
central
▁outcomes
▁Mathematics
▁Dong
isbury
▁Arabs
ression
▁1861
▁assim
▁bottle
▁Shire
"/
tole
rically
dict
alus
since
▁defenders
▁loading
They
▁plateau
▁offshore
▁Yuk
▁storms
nell
▁(2011
–16
▁spear
▁incent
lium
▁Istanbul
▁financing
▁fu
▁expressions
▁Philharmonic
▁Ballet
midt
▁modeled
▁accurately
▁Jub
▁Cotton
▁Bermuda
forth
▁1936.
su
▁Sebastian
▁Terror
▁costumes
▁Achievement
▁Kad
▁Ket
▁Marl
▁gambling
Count
▁crust
▁identifies
▁Butter
▁ta
▁shar
▁Solar
▁jewel
▁Tennis
▁governmental
flo
▁congest
▁concludes
▁downstream
:1
lantic
▁Sally
▁Pere
▁Seoul
▁miniseries
▁instituted
▁restruct
▁spo
▁repet
▁Eden
▁advocates
▁orbital
▁arche
▁Percy
▁Him
asaki
amen
▁Monter
▁TD
▁lined
▁hydraul
▁Algeria
▁nutri
onshire
▁Tucker
">
inae
▁chaired
▁Gav
▁Gul
▁deciding
▁Poll
▁mountainous
isse
▁oversaw
▁Ches
▁ordin
▁Baden
shop
uctor
ertile
bee
▁Carth
▁reluctant
▁substances
▁immun
▁pressures
▁Enterprise
profile
▁comprise
▁minorities
▁Tah
olshev
size
ranger
▁Associate
▁Corpor
▁Tac
▁Duck
▁rendering
▁Fry
▁Wid
▁Mugh
▁1908,
▁Boat
▁MLB
▁Vista
▁Pierce
▁unaware
▁defunct
▁talents
▁Period
▁Known
▁caves
athi
innings
▁diplomat
▁anonymous
▁pled
▁activation
▁asteroid
▁Pu
▁Dixon
unta
ugged
▁Academic
].
▁Mets
▁node
▁pedestrian
▁Ble
▁shoots
▁terrorism
▁speeches
tlement
▁Sue
▁cel
process
▁nominal
▁Discovery
ysical
▁Housing
▁productive
▁Letter
▁healing
rio
▁Victory
▁exports
▁rankings
▁Antioch
▁Graduate
▁Ek
estead
▁Holly
forward
▁Gore
onte
▁fierce
▁dedication
esa
▁rocky
▁Choice
▁biblical
▁indef
▁SN
▁Chip
▁indie
ostal
▁Tank
▁decorative
▁Maya
▁soils
▁Drake
Arthur
▁harmony
▁Montenegro
▁matched
zegovina
▁Dipl
▁bust
▁hered
▁sworn
hm
skirts
▁midnight
▁Wade
numbered
▁determination
abs
▁Jacksonville
▁trainer
ophon
▁keyboards
▁Inside
▁governors
asteries
▁Rex
▁ell
prote
▁Emil
▁Beast
▁creek
▁pond
▁Freeman
▁infections
rade
▁Sega
SN
▁lymph
▁Eb
Mont
▁automated
▁sings
▁Iss
inology
▁inflamm
▁attitudes
▁1919.
▁grouped
▁uranium
anas
▁Iz
▁athe
▁Numerous
▁Mater
âte
▁1881
▁ecological
ogram
▁baron
▁illum
▁60%
▁offspring
▁1937.
▁projection
LO
▁gospel
▁1884
▁LLC
▁cellular
alach
omorphic
▁inability
fund
▁Plus
▁tallest
▁licensing
aram
▁paired
▁combinations
Tom
erved
▁Cedar
▁Crisis
▁Regard
▁exceeded
ounding
▁Birth
▁precision
ede
Japanese
▁emerge
Green
▁suite
▁lumber
pered
▁regain
▁diary
▁flies
▁Kann
▁0.7
▁rhet
onlyinclude
▁originating
trak
▁Sergeant
▁retreated
▁suscept
▁100,
▁Joyce
▁Jupiter
▁declare
▁flooded
▁symmetry
▁intake
Air
▁cardinal
▁Associated
▁Mats
▁tasked
Our
▁debris
Two
▁Nadu
elin
▁Phi
▁chips
▁Yah
▁exiled
▁Hammond
▁Gunn
▁Chevrolet
▁1886
▁Malaysian
▁possessions
gone
▁outfit
▁Pione
▁Wander
▁Truth
▁controller
▁compass
zone
▁Citizens
Mc
thirds
▁accidents
bern
tee
▁Pond
▁Title
▁cancell
▁Cities
afia
▁lowered
▁dairy
▁simulcast
▁chase
▁insert
▁economically
▁Dors
▁iconic
struction
▁Gos
ocaly
ibal
▁answered
Paul
▁compart
▁denominations
▁PBS
▁Uruguay
▁throat
ppe
▁skiing
▁Aston
▁Jenkins
▁Phillip
▁Estonia
▁Coventry
oine
▁Brady
auts
▁Bard
▁Mao
▁Chilean
▁abrupt
cip
▁representations
▁fortifications
▁alike
appropri
▁newscast
▁dug
atinum
▁debts
▁gases
▁Cove
▁Approximately
▁reconstructed
▁infra
▁Lebanese
▁undergoing
▁Cash
▁affection
▁SF
ller
▁Dover
▁wanting
▁MVP
▁irrigation
▁arter
▁fossils
heng
▁crowds
▁Recently
▁predecessors
arrass
▁onset
▁striker
▁advertisements
▁statute
▁Mikh
▁kingdoms
▁barn
pal
▁Saxony
▁aluminum
▁innocent
▁atom
▁Falcon
▁Want
▁Acts
²)
▁Helsinki
iliated
orthy
▁besie
▁verbs
oids
▁Stro
▁overd
▁theolog
▁SW
▁Roh
hig
▁Lit
necess
▁WWF
▁loves
▁refusal
stroke
▁Rican
▁Mickey
▁homeland
▁Nurs
▁Nest
▁dealer
▁Nicarag
▁arbitrary
▁intensive
▁Jeffrey
–195
▁None
▁Eisenh
▁syllab
▁dynamics
▁sinking
▁similarity
▁Rules
▁maneuver
emer
note
▁referenced
▁pronunciation
▁demon
▁Uz
▁Bowie
▁whites
▁paternal
▁telescope
▁reinforcements
▁Dundee
▁Sacred
▁outskirts
▁Rotten
▁genuine
▁extinction
-14
▁screened
▁Isles
▁infilt
▁unders
▁1867
▁Pall
▁fart
▁premium
fi
▁pistol
▁designing
▁Sundays
▁hammer
Saxon
▁archive
▁3–1
▁Wer
ieri
▁nobles
▁Reverend
Connor
▁Quart
MF
▁duet
▁59.
▁Educational
▁Recreation
▁contestants
enstein
▁aging
▁Calder
▁Starr
▁lesbian
▁mapping
▁modeling
▁surveys
▁criminals
▁voter
▁Thirty
▁trends
AD
omans
▁Berks
▁chicken
▁folklore
bred
▁lords
▁Timothy
Ac
ueb
▁cros
▁answers
▁Canberra
ologne
▁Mit
ailable
▁Yok
First
▁Braves
▁slide
▁Host
▁passive
▁rebounds
▁strongh
ucci
bourg
▁container
▁jurisdictions
▁unin
ibald
▁Intel
▁spark
▁1905,
▁Civic
actory
uty
▁(2010
▁Seventh
eled
▁Muss
▁kicked
▁Counties
▁Tropical
▁MI
▁Pike
ril
▁solved
▁(3.
▁textile
Bro
▁cultiv
alone
▁Inner
▁combust
▁lev
otted
▁stip
▁Cunning
▁papal
▁peasants
▁Manning
▁surpassed
▁encompasses
▁imped
▁Dodge
▁sketches
▁pushing
▁Hartford
fax
▁41.
▁Gle
uming
▁teenagers
▁Toledo
▁Map
▁Bras
▁partnered
▁specialty
▁lacks
giving
▁surgical
▁Hed
▁Utt
▁cro
▁cleaning
▁merchand
antes
▁corrupt
▁NE
▁warrior
clusion
▁guy
▁Patterson
▁observer
▁Lans
▁occupying
▁Gloucester
▁breach
▁naked
ariat
hra
▁ank
▁Basic
▁gren
▁spanning
tw
▁submer
▁neighbors
▁contestant
▁Vision
▁Hermann
▁Shu
▁puppet
▁Budapest
represent
▁1917.
uddy
▁MIT
yp
▁Ves
▁eleg
▁cricketer
▁Built
▁asset
▁nodes
▁extensions
▁promises
Tor
▁saves
▁Dragons
solete
ships
▁Guatemala
▁empir
▁Arlington
▁Slam
site
▁Officers
▁confronted
▁HBO
▁ethical
LD
ataka
▁18;
Pop
storm
▁Oriental
▁antis
Book
▁Name
letter
ooting
▁larvae
▁wag
▁sher
▁rental
▁Casey
▁Taj
▁robust
▁Match
driven
▁pamph
ramer
▁matric
▁pretty
▁privat
▁seiz
▁Marco
▁limiting
▁Veh
▁Wan
▁workforce
▁1871
▁Inver
▁Panthers
width
▁Catholicism
▁env
▁47.
▁rpm
▁Turb
▁victorious
▁Evil
▁advisory
▁westward
▁Riley
▁Fam
▁UP
circ
▁eponymous
▁94.
lections
▁1848
▁judged
▁intersects
▁agenda
ammad
▁complaint
▁ideals
▁entrepreneur
send
iste
itism
sil
itia
▁Neigh
▁comput
▁Slovak
▁partnerships
▁abundance
▁VC
▁Pend
▁smugg
▁Climate
rite
▁gy
aphor
▁Shirley
▁Salisbury
▁Hond
▁Cheng
▁airlines
▁consulting
▁Bombay
keep
▁rebuild
▁Middlesex
▁debates
▁kidnapped
▁Away
stones
▁Siles
▁flags
access
orers
orical
▁posed
effective
▁expressing
▁Fed
▁terra
▁Cambodia
▁firearms
▁introduces
000,000
Chief
music
▁ordering
Ass
▁locks
ipur
▁Cloud
▁Hutch
▁neurons
▁prosperity
girl
▁rides
oop
▁UCLA
▁socio
dep
▁Toul
▁Fest
▁Rolling
▁metro
gel
▁Britt
▁Exeter
▁Kiev
▁yields
lication
▁aligned
▁documentation
▁Need
raltar
▁IRA
fts
▁pep
▁Mell
▁Prairie
▁Wi
▁24;
▁supreme
chard
▁Wen
▁Cliff
Cont
▁Bronx
▁Certain
ructions
▁1930.
▁redist
▁adjoining
▁Kumar
▁beats
▁stuck
▁analyst
▁drinks
▁chambers
▁Poles
▁satellites
▁Rum
▁Niss
▁boyfriend
▁Motion
▁tragedy
ilers
▁Ptole
▁inmates
▁Eisenhower
▁repaired
Ha
comb
▁Pratt
▁Schne
fred
▁Stones
▁enterprises
fields
▁Benson
▁adoles
▁Flanders
▁Trevor
▁catalogue
▁Bac
▁interpretations
otive
▁Lun
▁Build
▁ballad
▁hire
▁Raja
▁refusing
▁Evangelical
▁"'
▁globe
▁permits
ukes
▁theatres
▁Santos
▁CT
sein
▁fertile
stitutional
▁bip
▁Chemical
rypt
achute
▁Vul
▁Change
▁chances
▁psy
▁CW
Die
mov
▁oxide
▁shark
lew
▁reliability
Space
▁1935.
▁Zamb
▁Waterloo
From
▁104
▁Pearson
▁catches
▁Randolph
▁prophe
1%)
▁Revival
▁delivering
ebe
▁Reb
▁cum
hao
▁crystall
▁profitable
▁speculated
▁foster
cyclopedia
▁Vander
▁Indigenous
▁rebuilding
--
▁Muk
▁Viking
▁astronomy
▁Success
emi
▁unchanged
▁Chamberlain
▁rehabilitation
▁Ci
operative
▁Rebell
▁Stefan
▁BMW
north
▁pard
▁treating
▁(#
lash
attery
▁torque
▁supervised
▁consecrated
▁financed
▁$10
▁scrapped
▁María
▁1876
▁integer
▁Michelle
▁CM
▁viable
▁overlooking
▁mice
▁Traditional
▁1820
▁cruel
▁exported
▁151
▁VHS
ellite
▁Thorn
retion
▁Sales
▁careful
▁44;
starred
▁contemporaries
tte
▁bark
▁fox
▁Augustine
▁freshwater
▁pope
▁failures
▁orchestral
itian
▁dip
▁Mare
▁intentions
▁turnout
▁rapper
▁cliff
itas
▁Frost
▁Leigh
▁semic
▁Religious
▁roller
Bo
puter
▁math
▁tissues
▁monetary
atum
▁Davidson
Category
▁mobility
▁Fleming
▁embarrass
▁barriers
Ul
▁Hers
áil
▁HP
chez
▁Deal
▁Shiva
▁hiking
▁testified
generation
osphere
▁64;
▁campaigned
▁Libya
iggered
▁polynomial
near
eastern
Gl
▁esp
▁columnist
▁selective
▁spatial
▁tut
▁Yosh
▁evacuation
ermo
ichael
▁advocacy
▁1882
▁Eleanor
▁corners
▁MacDonald
▁punish
▁subset
▁Alps
▁Appeal
▁supernatural
▁Ree
▁fals
▁Nicol
aircraft
▁Hydro
▁stretches
Fort
▁106
▁graves
tre
▁2–
▁unreleased
▁Hitch
6,000
NR
mere
▁appeals
oody
▁receivers
▁reasoning
▁Landmark
▁Ist
▁doctoral
▁residences
initely
▁lighthouse
▁email
▁redesigned
▁Kok
▁grip
iative
▁Lug
▁Paper
▁Ultimately
▁Hollow
▁redevelopment
bye
▁aunt
hampton
▁insight
▁vacancy
▁spor
▁Broncos
▁Advance
▁summoned
uating
▁donation
▁compulsory
eh
▁6,000
▁Beaver
▁Bengali
ividually
Reg
dorf
▁Perhaps
▁1933.
▁jealous
ahon
▁Corp
▁Torah
▁damaging
▁subtle
▁processed
▁Barton
▁adverse
ifa
▁Basque
▁Democracy
▁triggered
▁Lü
▁Wire
erting
▁Vij
▁Tao
▁rented
▁socially
▁Blackburn
▁adaptations
▁149
▁70%
▁assuming
▁Kerr
▁helmet
iani
▁Nacional
enne
ighed
▁Jagu
▁skate
▁Corner
▁Mald
▁1%
▁kern
auth
▁Willis
▁batsman
ono
▁Gibraltar
▁comparing
▁villagers
▁fake
▁thickness
▁dried
▁adviser
squ
pler
▁oppose
▁aluminium
inness
▁burnt
▁disin
▁Greenwich
▁Letters
▁Barack
▁Arabian
bage
uded
▁harder
Work
uras
cats
▁iter
▁shuttle
▁Midwest
▁Visual
phe
▁Lé
▁exploring
▁Seym
▁Dup
8,000
▁kinderg
▁Zero
▁1862
▁Fram
▁dose
licted
▁SI
▁Wyn
▁Omaha
▁feudal
▁announcing
▁Pray
▁transactions
Sk
▁PM
▁Sanders
▁possesses
"."
▁Bott
▁Helena
▁cooperative
▁Animal
▁coastline
▁addressing
▁CI
▁Pius
▁Andrea
▁worlds
▁offerings
heid
▁Parsons
▁Valentine
▁professors
▁mg
▁advers
opot
▁Elis
▁15,000
▁Singer
▁piv
▁Canon
▁recount
usp
▁Volunteer
NO
▁1863
HP
▁Titans
▁anterior
▁Sara
ipzig
iaries
▁trailer
▁Pharm
▁Chrysler
▁colloqu
▁McCartney
▁filt
▁Sister
▁Dix
▁numbering
urol
▁Fro
▁announcer
▁bail
▁broadly
pi
upon
eren
▁Exhibition
▁Herzegovina
▁Volks
▁emblem
▁Eyes
▁Rouge
▁dorsal
▁ears
▁tide
▁portable
▁upstream
▁burst
▁Crosby
▁makers
▁mutations
▁IR
▁Nordic
▁Matthews
▁0.8
▁breakfast
▁1909,
▁Gould
▁forum
▁spans
▁chiefly
▁induction
uler
▁1929.
▁holdings
▁scal
▁Baghdad
continental
ivo
▁Luz
▁occurrence
▁Cologne
▁dismant
▁likewise
asus
▁1906,
FI
▁Giant
▁Renault
onica
▁balanced
▁α
▁Australians
▁incarnation
wara
Mart
▁Stephan
▁employing
▁confrontation
▁Zhou
▁Dwight
▁Shak
▁locate
▁reissued
250
▁beneficial
tel
▁Ti
▁welcome
▁necessity
▁Marri
eward
▁Doyle
▁Excellence
▁103
▁Albion
▁celebrating
▁Negro
▁chiefs
▁humorous
Christian
▁practitioners
2%)
psons
ancock
▁satisfy
Il
antan
▁refuse
grove
▁satisfied
▁Tourism
▁Carlisle
▁Collegiate
▁Tonight
▁millennium
lift
▁promotes
▁entirety
▁reproduction
kel
▁Chambers
HD
aird
thor
eight
▁galleries
▁GA
nance
purpose
▁102
▁Bé
▁Reservoir
▁reminiscent
▁1,5
▁Jerome
distance
▁reporters
oso
▁tributaries
▁abnormal
▁devastated
▁Instr
▁Schwar
▁assessed
▁Elvis
▁sandstone
▁112
onson
Rob
cue
nar
▁detention
antas
▁plantations
quality
▁modules
umbers
▁feas
▁1914.
▁diagram
▁Holdings
▁Ware
▁obsolete
▁pastoral
▁Chandler
▁parameter
▁desp
fal
▁weekends
cio
▁eliminating
▁Creative
▁1907,
▁Formation
points
▁strand
▁Jiang
▁Nab
iencing
▁clearing
▁Camden
▁RB
▁darker
▁complexes
▁sensitivity
▁1–1
ijuana
▁dispatched
PP
▁1864
ulla
▁transcription
▁Ji
▁93.
▁infect
▁shorts
▁Ethiopian
▁Process
▁favoured
▁overtime
zburg
▁1872
weed
▁Clayton
▁Seymour
▁Shannon
▁Sharp
▁dental
▁mathematician
uber
▁Haiti
▁excavated
working
▁frozen
▁Highlands
▁depiction
▁cure
▁Anniversary
eated
▁Aside
▁Georgetown
lining
▁Gut
▁Steam
▁shores
▁Jessica
▁Hipp
▁1.3
▁dawn
▁Ó
▁Standards
▁companions
originally
▁filmmaker
evo
▁halted
▁sheets
rail
▁solic
▁pretend
3%)
▁Fast
▁fibers
leen
▁generator
gart
▁42.
ancies
▁sympathetic
▁turret
sq
jah
▁Hey
▁raced
▁eleventh
▁metre
▁genome
▁physicians
▁Northwestern
NG
▁Abbott
▁aquatic
leys
▁laying
gem
▁embassy
nez
▁Ranger
▁Holden
▁Roberto
atu
zel
ribe
▁extraction
rika
▁intr
▁Mikhail
▁cancellation
▁Fuj
▁Bryant
▁magist
Sun
▁tumor
mans
▁Alc
▁Bruno
▁1868
▁biographer
▁3–0
▁Religion
oust
idding
▁Francesco
▁essence
Mel
amon
▁bureauc
▁reorganized
▁rejection
▁Atari
▁Cancer
ahar
ongo
▁122
▁Riverside
cedented
▁coordinator
▁mothers
▁Monastery
▁councillors
▁Thing
▁Hearts
▁Okinawa
▁emission
▁subordinate
▁Mormon
▁Eurovision
▁Nichol
▁summary
▁Clarence
▁pioneered
▁continually
texts
▁Flat
_6
uca
urgy
▁Archives
▁maker
▁armored
▁hypothes
▁1879
▁2006–0
▁averaging
▁Universities
▁inadequate
san
▁Phase
▁alternating
▁Rafael
▁scenario
▁Ned
▁outright
▁(1990
▁Fresh
▁Garcia
▁Grass
▁landings
▁vacation
▁violated
▁unstable
▁Brigadier
avers
▁Dawson
▁1865
▁excellence
▁Pred
▁40,000
▁Shim
tym
▁prevention
gerald
▁Smart
▁plots
hof
▁Inspector
▁hereditary
▁52.
▁brakes
▁prevents
▁obligations
▁Cunningham
sten
▁McLe
▁aven
▁disqual
▁pipeline
▁spectacular
▁humanitarian
▁Edu
▁Joey
▁Traditionally
▁Veterans
Final
▁pent
▁racism
▁Wik
▁impacts
▁Poetry
▁Augusta
▁USC
ouble
plements
Trans
▁gasoline
▁savings
▁participant
▁courty
▁leisure
▁Niagara
▁prone
rí
▁befriend
With
▁persuade
▁Opposition
oton
▁calm
▁Lars
▁Denis
ominated
▁Lands
▁standardized
▁attracting
▁uncertainty
▁Huss
ools
ubled
▁1878
▁stiff
▁patronage
▁Č
▁deficit
▁beet
▁patents
▁Peterson
▁marching
eted
▁Byr
▁Uganda
▁debated
▁Engineer
▁mol
▁Bates
▁wolf
TI
▁lag
▁forget
▁determines
iban
▁RBI
defined
▁forever
▁posterior
isen
▁ancestral
▁anxiety
▁phrases
▁Frontier
nick
▁1883
ashtra
ouf
▁vag
▁famed
▁organism
ulg
▁(192
abetes
economic
▁Companies
ervation
icultural
▁treasure
▁Pole
▁Camer
▁Nielsen
rapeut
▁Auburn
oxide
▁Shane
▁Ō
▁Tell
▁Danube
▁assassinated
abel
lage
roads
▁Jain
▁schooling
▁Supporting
▁coloured
▁Different
▁slip
▁Shepherd
▁explorer
chy
▁Usually
DM
▁align
▁Francisc
▁IL
▁constituent
▁64.
▁Alexandra
▁odds
▁Tales
▁Twitter
▁absorption
▁WR
▁unusually
▁suppressed
▁Bin
▁drift
ikk
▁Rebellion
▁CNN
gren
▁1902,
▁jersey
▁issuing
▁differing
▁Weston
▁throws
yg
▁shocked
▁troubles
▁turbine
▁Pasc
▁entr
▁Krak
▁admits
▁sensor
▁conceptual
▁presided
gil
▁polls
56
▁Performing
▁Barker
▁Murd
▁mold
▁Siege
▁gravel
▁Turin
▁installations
▁44.
▁seated
▁functionality
▁Synd
▁resemblance
▁Erik
▁grab
▁cruisers
▁Ide
amoto
ighty
▁cheaper
▁Stoke
▁Patricia
▁Kuwait
▁northward
▁practicing
▁halt
4%)
▁Applic
▁facial
▁dominate
▁geometric
ès
▁breeds
▁Bolshev
Get
atti
▁Fris
▁poetic
WS
▁Barber
▁Barrett
▁decreases
▁Jal
▁Thous
▁Strategic
▁compliance
▁travers
▁indication
▁theft
▁Physical
uations
ević
iplinary
code
kend
8%)
▁brake
▁gradual
▁joke
▁Lindsay
▁collegiate
ulator
mounted
uates
▁recognizes
▁excavations
NY
▁Kant
▁airs
▁merit
▁denomination
▁Vald
▁myself
▁GC
Ham
▁commissions
▁Isabella
ako
▁examine
mediately
▁sexuality
yu
▁1861,
▁remod
▁individually
estine
astered
▁captive
▁Suk
▁characterised
!".
▁ost
▁granting
▁Cosm
-201
▁painters
▁translates
▁Dres
▁EMI
▁fres
▁originates
▁Nin
▁commentators
▁legitim
▁cheer
▁currents
▁screenwriter
▁1873
eous
▁wears
▁Angela
▁experiencing
iae
▁DE
▁Cret
anya
▁Merit
▁Ez
▁whale
▁prayers
▁bombardment
utherland
▁adjusted
▁Yi
Swiss
▁behaviors
▁renovations
ische
▁ambul
▁admired
lette
▁phones
OD
▁Raz
▁ellip
▁PGA
iciary
▁Rally
▁Rudolf
▁squares
plex
▁omitted
London
▁enzymes
▁constructing
uo
▁rh
▁Dag
▁reverted
▁Bulls
▁Sunderland
▁Lotus
▁fingers
ís
▁Beverly
▁eccentric
brates
▁Amtrak
▁dive
▁Weber
▁Gian
▁Brandon
▁homosexuality
▁118
▁fond
▁113
▁pitching
▁Welles
▁DS
▁pipes
▁Williamson
fem
▁treaties
▁Euc
▁Marathon
▁Tomatoes
▁warships
▁Buk
▁casino
▁Carlton
▁Xavier
▁Ms
▁Kell
▁regulate
usty
▁stro
▁3–
Three
▁Truman
uce
ingo
▁Lob
iasm
usive
olutions
▁Stevenson
▁inscribed
gee
LI
▁Arr
oft
▁Kai
▁unnamed
aceutical
▁unpopular
Land
▁alpha
▁Hok
▁Literary
▁BR
▁Cell
▁cyclone
▁Honey
video
▁drought
▁silence
▁feeds
▁algebraic
▁perfectly
acker
▁Fitzgerald
▁Titan
▁treason
ookie
urred
▁Bulld
unner
▁Auton
▁holders
ilated
▁Jorge
Sam
▁1922.
Ann
▁Bri
▁relate
▁monastic
▁spray
▁124
▁Shuttle
comune
▁cc
▁111
Bad
▁hollow
▁collectors
▁45.
▁vein
trad
assium
▁firmly
▁prolonged
▁Burlington
mut
Min
raz
▁ranch
▁recovering
7%)
▁1904,
▁transferring
6%)
▁Teen
▁erup
▁Til
▁infamous
Fre
▁sew
▁Did
▁takeover
▁liberty
▁Premi
▁maiden
▁Partners
▁commence
▁Strip
▁deposit
onel
▁prompting
▁attachment
▁Arrow
lated
▁rolled
▁twins
▁Fow
▁1874
▁spokesman
▁Liz
▁Gott
▁Carpenter
ographically
▁Fol
uling
▁Emerson
tures
▁exagger
tera
stick
▁dele
▁idol
State
raged
▁specifications
▁Noah
▁Sabb
linear
▁sect
owitz
▁traff
▁burden
▁triangular
▁disposal
▁stern
▁chaos
▁1901,
▁Janeiro
éd
UT
▁homage
▁1934.
▁hunter
ranking
fest
▁Dictionary
▁backgrounds
heny
▁freshman
odynamic
▁Aval
▁Forbes
Med
▁decent
▁Jacobs
▁superst
▁Admiralty
▁Magnus
▁comply
▁Ministers
lighten
▁spells
▁detached
▁127
ventions
▁privacy
▁129
▁decreasing
▁meanings
▁Garc
▁Miche
▁fluct
▁dispar
glass
▁deities
▁stressed
HE
▁Miz
arton
jiang
▁1.1
▁monasteries
▁Canadians
▁Exc
▁weld
▁applicable
▁fuselage
▁tapes
▁Hancock
▁MW
▁toys
▁Credit
▁unprecedented
▁Nile
▁shareholders
▁juvenile
▁simplified
▁46.
▁Fi
▁simulation
Sem
▁Whilst
▁enforced
▁1866
▁crushed
▁submerged
▁Roma
▁latt
▁Pride
▁Christine
▁43.
-1970
▁luck
▁Guitar
▁deposited
]],
House
▁Serbs
▁possibilities
▁1877
▁sparked
▁discrete
▁geological
▁RO
▁Multip
etically
▁Depending
▁expeditions
▁bab
▁Make
▁Shank
ulton
▁Internal
▁Yak
ibus
▁Kazakhstan
▁1903,
Ty
termin
▁influx
▁Colombian
▁Avengers
▁disappoint
▁Strike
▁conquer
▁Wong
▁incred
GI
Hen
▁bride
▁envelop
unts
▁derive
Tw
▁cyt
▁ranged
▁affiliates
▁Bhut
▁relies
▁Atlas
▁afore
▁Returning
▁detachment
▁martyr
▁7-
Arab
▁thy
▁lenses
▁Daniels
▁counting
4,000
▁Ski
welling
▁Integ
▁Dunn
▁medi
span
izon
▁captivity
▁chocolate
▁implications
bral
vous
▁Hin
▁Bonn
▁artery
VN
rev
▁defenses
?",
▁salmon
▁whales
lé
▁1928.
lawed
▁Caled
illi
meaning
▁periodic
▁discharged
▁presidents
▁blocking
Note
▁1932.
astrous
▁subtropical
Rep
arios
▁Paradise
▁Beta
▁verbal
▁Leipzig
Sur
kef
▁jun
herty
▁132
▁realised
▁wilderness
▁servers
▁forgotten
Spe
▁Leone
52
▁ink
▁Illust
▁Tracks
ariant
▁Mohammad
▁structured
acity
▁Harlem
▁Latvia
▁rall
▁famously
▁1.6
Bel
▁3.1
▁Tests
▁floods
▁transfers
▁duck
▁Search
▁Perkins
▁reservation
ht
▁disli
▁bowler
▁climbed
▁obscure
odus
phoon
▁Graves
▁mars
▁Philippe
urricanes
Ke
▁progression
▁alarm
▁wouldn
uline
▁serm
▁Sigma
culosis
WW
▁1912.
▁medication
▁123
uds
▁#2
iesel
▁Sheridan
▁discs
▁Archer
▁Cheshire
▁converting
▁rumors
▁hydraulic
ascar
▁cubic
▁grape
öl
▁WK
▁portal
▁Lambert
▁Look
▁convinc
Dark
▁dean
▁Walton
▁Evening
▁luc
▁derivatives
▁Fear
▁Rebe
▁elong
brahim
▁digits
▁sensors
▁innovations
▁Select
▁shifts
ounge
▁Tate
inster
▁tremend
▁monopoly
▁ts
▁Stop
▁hood
▁fence
ait
▁Axis
▁Jing
esque
amorph
▁Ultimate
▁automotive
▁Vand
▁Ottomans
▁Aristotle
▁oval
▁wines
0/
TF
▁Lope
▁replica
▁anchored
▁accumulated
▁Lal
▁adopting
abl
usement
▁princes
▁exploitation
▁Gear
▁Steelers
▁presumed
reditation
▁Byrd
▁farmland
-13
oult
▁1921.
▁boxer
▁Cott
artz
chin
▁serge
▁Fres
▁updates
▁Rag
▁Fri
9%)
▁Ri
▁offset
▁nonetheless
ewater
▁reciproc
▁107
▁pac
▁Cors
▁Jenny
▁numerical
▁147
▁Spani
▁Aragon
▁assisting
▁rebranded
▁NG
▁Bolog
▁premiership
▁rer
▁Mohammed
uder
▁Pemb
apo
usch
▁1)
▁Bash
oulder
▁Colts
▁routing
▁pharmac
▁supersed
▁1875
▁exchanged
-199
▁Els
▁communal
▁Antarctic
▁Hogan
▁sacrific
▁1924.
Game
imet
azing
umont
▁culminating
▁tolerance
vez
▁lava
▁Clifford
▁shortage
▁Tsar
▁Slovenia
▁echo
▁dioces
kok
▁Era
▁kHz
▁Schu
▁Reformation
▁Sty
▁apparat
▁prehistoric
▁Liang
▁friction
▁rept
▁Icelandic
▁ATP
▁Von
cutta
▁delight
Mod
▁crus
▁handic
▁Alternative
▁Divine
UR
▁Farn
▁Austro
▁regret
▁Released
▁Zar
hee
▁targeting
▁Byron
Val
▁Gap
▁defendant
▁Spl
▁une
▁Leadership
▁reprinted
▁Wins
▁bells
▁recruiting
▁Wave
▁suits
▁landscapes
▁diminished
enb
ulse
▁Azte
▁mutation
ysics
intosh
▁patrons
▁Rica
illary
▁deple
▁surplus
▁Einstein
▁{
▁Carmel
▁Sioux
ranged
▁Hang
▁Macedonian
▁awa
alore
▁petroleum
Oper
▁Passer
▁popularly
unga
▁1923.
▁motivation
auce
▁Nem
▁Rebecca
org
▁Deer
▁resume
▁Packers
▁Ips
Irish
pound
▁populous
viol
▁wholes
▁Nicolas
▁unnecess
▁chartered
▁Boss
▁aforementioned
autical
uably
gender
▁culminated
▁coordinated
▁barracks
▁combustion
▁Lect
▁WP
▁Initiative
orse
▁Bally
▁acceleration
igraph
▁arguably
▁HT
▁1931.
▁philosophers
▁crossover
▁eman
acious
▁117
▁lex
▁Fighting
Roy
ité
Under
unker
▁angular
▁Solid
emy
▁Lub
▁wax
inely
▁saints
▁overthrow
onga
▁Biblical
▁determin
▁Communication
oprano
▁1927.
▁wisdom
inski
▁photographic
▁sne
▁coh
▁Karnataka
ieve
Journal
▁assumes
▁pending
▁15%
▁pix
▁packaging
▁Cromwell
▁disappointing
▁spawned
Var
▁pilgrimage
▁Ecc
Canadian
▁Alfonso
▁nationals
AL
▁Likewise
▁Luck
▁veto
▁advertisement
▁stretched
▁126
▁Cannon
▁Jag
▁sulfur
▁memoirs
step
▁shifting
▁ton
othic
▁Gat
▁ratified
▁eighteenth
▁1.4
▁trauma
▁Neither
▁eastward
cole
arine
▁coordination
▁plague
▁Present
▁packages
▁Sla
unders
▁galaxy
▁semifinals
▁authentic
large
▁pound
backer
▁temperate
▁144
odrome
▁dissip
▁refined
▁beef
▁Lima
▁Vall
▁Donna
▁halfway
▁138
▁Mozart
▁Restoration
hon
onial
between
▁consonant
▁pagan
▁suspicion
▁Flam
▁amen
▁Twins
▁multim
▁Hak
estown
▁costly
7,000
▁Munster
▁organizational
frey
▁subdivision
leaf
loaded
▁Innov
▁devastating
▁116
▁branding
▁1869
▁Micha
▁polym
▁pressing
▁salv
William
ificent
▁Plateau
▁$8
oise
▁Madh
▁tenants
▁distress
▁disastrous
▁burg
▁conject
▁resisted
▁Buchanan
▁vocabulary
▁dismissal
▁guilt
▁resembling
lynn
▁stack
▁respir
nor
▁Organisation
▁myst
▁fined
ogeneous
▁Honours
▁incoming
igma
recht
▁1925.
▁focal
▁Swift
odon
▁92.
▁denounced
intage
▁Quint
ça
▁$500
▁olive
▁Ronnie
▁Stirling
▁Persia
▁principally
ferred
glomer
usions
▁Presley
▁conferred
idy
▁Rifle
▁Mud
croft
▁sentiment
▁Hannah
▁contempl
▁Ricky
▁surroundings
coe
▁hiring
▁validity
▁allegiance
▁tense
Ber
▁Ud
pace
▁Wanderers
▁Bohemia
▁robbery
▁inventory
▁patrols
▁Trustees
▁121
▁Savoy
▁births
▁gymnasium
owment
▁hate
COM
qua
▁0.9
▁visc
▁unhappy
ün
uffs
lightenment
▁inherent
sl
▁lasts
▁cassette
▁Æ
▁cables
▁miniature
Rich
union
▁Kirby
▁Macau
▁Ride
▁premature
▁Hag
▁Sob
▁1915.
▁Harri
▁stays
▁ensured
▁stealing
▁distribute
▁Gao
▁Smy
▁Immediately
▁Alg
▁Import
▁surveyed
▁Appalach
▁outlined
▁contexts
▁Derbys
▁academics
▁conception
▁incorporation
▁PP
▁jam
▁Rising
▁basically
▁retrospective
▁latitude
▁consortium
▁(4.
▁fairy
▁2007–0
▁viewer
▁Regular
▁Resort
53
▁(2012
▁bla
▁eruption
▁Dubai
▁simpler
▁suspects
▁protested
▁optimal
▁kindergarten
▁Katherine
▁physicist
system
▁devote
▁Jung
pets
▁Myers
Home
▁Moy
▁Tes
▁dirt
▁Theological
ogues
▁prescribed
▁trades
▁upheld
DO
▁niece
insk
mare
BN
▁exotic
Washington
tech
▁Jennings
▁hostage
▁congregations
establish
▁approximate
ères
▁markings
▁discusses
Death
seven
▁Ž
▁Tuc
▁Twelve
uvian
▁pulling
▁administer
▁Tian
▁successors
prom
Saint
▁arrow
▁forts
▁sharply
▁implementing
▁Italians
▁Owens
▁snakes
tank
▁ICC
ropic
ucus
opotam
acritic
themed
▁stretching
▁feminine
Sim
nis
▁Choir
million
▁Sutherland
Disc
tham
▁apparatus
▁variously
▁Dorset
ocus
▁knockout
▁450
▁meg
▁1926.
sided
inians
sville
▁resistant
▁Bax
▁Nigel
▁submission
operated
▁Gn
▁Monaco
▁Panzer
ayana
▁ul
▁recapt
baum
witz
▁Weap
▁append
▁Å
▁Autom
fs
▁114
▁1898,
▁Pist
▁Pret
obiles
▁jungle
owell
▁shout
▁200,000
▁Amar
Vol
show
▁unwilling
▁contingent
anza
▁Cron
flight
▁accelerated
▁Stur
▁flourished
▁recruits
▁astronomer
ène
▁darkness
▁patented
bably
▁Madras
▁hardly
▁lent
▁weighed
Mer
▁caus
▁Use
volume
▁utilize
ulture
▁Navig
▁tiles
▁Agent
▁warehouse
▁Derbyshire
▁TC
Royal
▁Colt
standard
▁electromagnetic
▁liability
▁unanimous
opus
spons
pole
▁centred
sha
attack
▁metaphor
▁Congressman
uala
cost
▁Chop
▁wors
iom
skins
▁Clem
Bat
▁Meeting
/1
▁offence
▁Phantom
▁Schumacher
▁fleeing
▁songwriting
▁Comic
▁flesh
▁Wemb
▁Witch
atholic
▁promptly
▁pulse
ogie
▁cos
MR
▁Quad
▁cher
▁temporal
▁crystals
▁Pablo
▁Shell
▁captained
▁Mini
▁Venetian
▁Cald
▁Medic
▁erect
▁utter
▁discoveries
▁1857
▁unav
▁Wet
▁Vince
▁justified
ochond
liner
▁gifted
▁invalid
▁Species
▁Silva
▁(30
▁Hawkins
▁Hours
▁NT
▁preserving
▁Miy
Jewish
▁tear
due
▁Coss
▁Corinth
▁91.
▁Chemistry
▁Livingston
block
▁concurrent
raint
▁2005–0
▁defences
vil
▁trol
▁reappe
erver
▁0.2%
▁Dana
▁competes
▁Berkshire
arius
▁Alm
▁desirable
▁0.1%
▁1916.
▁Lexington
▁substrate
▁endeav
▁Pors
▁edit
▁objected
▁Judy
▁Agnes
▁swamp
▁wherein
▁Sabha
▁Lorenzo
racle
herical
▁Privy
dia
▁Ló
anu
▁Elm
andi
▁3–2
▁separating
MB
▁trout
municip
loss
▁Lod
▁Tanz
▁Cull
▁rats
▁XII
▁Calcutta
▁incap
▁taxation
▁fog
dated
ethoven
Mur
▁undefeated
▁Poin
▁armament
▁146
▁(1980
▁1890,
▁Happy
▁ceded
ocols
▁disg
big
▁Too
grave
▁1864,
▁heirs
▁flavor
▁bedroom
▁posting
▁prohibition
▁expresses
▁Tul
urrection
54
▁133
agonists
inist
▁Brett
▁148
▁90.
▁federation
▁Close
▁alloy
▁republican
▁Lund
ivalent
▁sympath
▁ram
ptions
▁neural
▁privilege
▁Conservatory
afa
▁hell
▁1862,
Times
coach
▁tenor
▁positively
▁leak
service
▁Tudor
▁restriction
eppel
▁Piedmont
▁outfield
▁→
anol
▁Hubb
▁Torres
▁Rough
▁stocks
Po
pei
phon
▁picking
▁Combined
Pat
▁biod
▁Scr
▁Swim
▁electorate
▁Rita
sta
▁undergone
▁calculations
obia
▁pear
▁Flint
shi
▁Raven
▁Events
▁McMahon
▁realism
▁chloride
▁Schmidt
▁exercised
By
▁Rash
▁reproductive
iggs
izza
▁Ave
▁instantly
▁satirical
▁practically
▁fitting
▁lumin
Broad
▁Holt
▁seize
▁Version
▁solving
▁Pleasant
▁fron
HO
ierre
▁Freud
▁asylum
▁tuition
Law
▁Archdiocese
wagen
▁ruined
▁Talmud
ández
▁Marina
Saturday
▁NJ
▁Kul
▁wand
iology
▁conjug
rophic
FF
▁minds
▁Fischer
▁popularized
emberg
▁Stakes
▁signaling
werp
ivism
control
▁lightning
haven
▁sink
▁Wey
fu
▁Have
Russian
▁Brooke
▁Flemish
▁likelihood
▁disappointed
▁brutal
▁copied
▁lodge
▁collaborative
▁escorted
▁disability
▁lav
sequent
▁Lafayette
▁uncovered
▁dy
▁streaming
▁correlation
ío
People
▁SV
▁Kry
▁shoe
▁blame
▁telegraph
▁mosa
igon
▁ridic
▁definitive
inees
▁brewery
▁astronomical
▁doctr
aminated
▁Polytechn
Ter
▁Cot
▁Brem
▁clouds
▁demographic
esis
▁1859
▁Libert
▁cardiac
▁Phillies
▁Marxist
▁troubled
▁flora
bay
▁Trav
▁$21,
rances
▁attracts
▁neglig
▁devotion
▁resting
▁contributes
proof
▁vass
▁Chu
ingle
kefeller
▁pirates
▁Hinduism
▁crude
▁metaph
league
▁vectors
isible
▁feder
▁stripes
cr
▁Countess
vid
▁talked
▁hardcore
▁migrants
▁meals
▁>
▁NL
▁Nothing
▁farther
▁contests
▁footh
▁Sho
▁Rapids
▁clinic
▁Catalan
aser
▁helm
▁enthusiasm
▁Leh
▁Mughal
▁pioneers
▁retal
▁tire
▁pleaded
▁guerrilla
▁duel
▁processors
ei
flies
nov
ondiss
▁flowering
ylogen
▁straw
▁developmental
▁Cham
▁Horace
▁clearance
▁deposed
ropy
▁Downs
loid
▁Indy
ths
▁Himal
▁Lance
▁Grim
▁intersect
aspor
ourier
accur
▁pits
GE
player
▁Copa
Tunes
▁Casc
▁Rous
roscopic
▁Bolivia
▁Hyder
▁mistress
▁Zach
▁Diane
▁provisional
▁Giul
▁rays
▁imagination
mega
▁etym
▁splitting
▁Lopez
▁skeleton
▁superintendent
Back
▁Gloria
▁Paraguay
▁lyr
▁Kamp
▁rails
▁honest
▁Landing
▁breathing
▁annexation
▁terminology
▁puls
▁tidal
▁Wembley
▁nonprofit
fraid
▁viral
▁Noble
▁emigr
▁reintro
▁swift
▁β
▁null
▁Wheeler
▁Guam
Der
_10
unist
▁Tet
lement
▁punct
VI
▁(180
▁reply
▁attach
▁Jubilee
▁indirectly
▁unanimously
icans
▁Sporting
vian
▁1910.
▁Rescue
afi
minded
▁Berger
▁evaluated
Mo
Tra
▁Tup
▁denote
▁impl
▁merging
▁René
guitar
âteau
ifiable
ornings
▁Carbon
yang
▁pose
▁recipients
2-
uddin
▁flexibility
▁freel
▁Greenland
▁censorship
▁Magdal
▁displaying
–190
▁observing
▁identities
▁vocational
▁elephant
▁Peel
reach
▁tunes
emon
▁Unic
iatric
▁dramat
▁loaned
▁Suzuki
oki
▁Pag
▁Said
▁Darren
▁meantime
▁valves
ographies
▁segregation
▁Pup
▁Barth
▁newscasts
_7
Long
▁Kee
▁Lill
▁disappro
▁meditation
–194
▁patriarch
nation
▁omn
▁NP
▁deny
area
nesty
▁ladies
▁Gazette
▁subscription
▁Peer
▁alcoholic
▁Huntington
▁dividing
▁informs
▁wrestlers
▁sweep
▁Sta
▁dams
itimate
▁1–
▁Tip
Young
▁habits
▁intimate
▁statutory
▁hymn
▁pools
▁catast
▁Gw
▁RF
▁Circus
▁Rapid
▁Giuse
▁urging
▁staging
▁kW
Heart
▁Guru
▁funny
▁texture
HR
▁Amanda
▁Associates
▁Rockefeller
cam
perors
▁probable
▁DA
▁Ela
MU
▁onward
▁besieged
▁(1)
string
▁denoted
▁dynam
▁Redskins
atas
date
▁rhy
▁wagons
▁denotes
aer
▁Avon
Western
▁220
olini
▁McKin
▁digest
▁attested
Dead
▁Cic
▁Simpsons
51
etus
▁switches
▁picks
iov
▁(2)
▁wrapped
Wild
▁cone
▁Theres
▁scenic
▁diabetes
▁afraid
itating
parents
▁preview
▁grandchildren
▁Swe
▁clo
▁nests
▁Cannes
▁Caucasus
▁Ipswich
▁decorations
▁Mayo
▁Hindus
▁prejud
ftw
anco
▁analyzed
Bra
▁hp
▁McLaren
▁refugee
▁umbrella
▁(188
");
▁succ
▁induct
▁insignia
▁guides
▁markers
fordshire
amboo
▁Script
▁Porto
▁Millennium
▁contractor
▁classics
Where
▁Crew
▁expans
ancer
▁Seth
▁prestige
▁lamps
▁blockade
▁134
▁Monk
▁Omar
▁respiratory
▁vib
ibles
▁2.7
▁1863,
▁Suf
▁Laurent
▁senators
horse
▁disrupt
▁CDs
▁Dir
▁Mund
▁torpedoes
DD
▁Alam
▁horns
Hot
▁Wine
▁García
58
Some
▁Concern
▁stir
▁persistent
ān
▁licenses
ński
▁establishments
imus
▁auditorium
▁midst
▁Courts
Gal
▁Unity
▁Goodman
scape
▁Hick
▁psychiatric
▁Nickel
▁suspicious
thorpe
▁pH
1,000
inished
▁execute
Part
▁dwellings
▁extracted
▁accordingly
▁Arg
eking
▁Holiday
▁circulated
▁Maharashtra
arro
▁Slo
▁Pool
▁Ruby
▁hes
▁seals
▁Hubbard
anson
▁Monster
▁suprem
▁Allison
▁Kob
▁(189
▁Newsp
▁plaint
arya
friendly
▁53.
Sa
inted
▁Constit
▁dictionary
▁Loop
▁spun
▁Travis
▁Gibbs
▁kernel
▁ammon
atching
vik
▁Flood
manship
operation
▁Dresden
▁Soci
▁Bound
oler
▁Ravens
▁poles
▁Bit
▁barg
▁Witt
▁procession
yar
▁Simmons
activated
ologic
▁Mongolia
vich
▁Argy
▁López
▁Administrative
▁Aid
▁Valencia
Sund
▁concluding
▁1900.
▁Nissan
Hungarian
▁AllMusic
▁1899,
▁seminary
▁UHF
▁Read
▁enthusiastic
▁2006–07
▁courtyard
▁restoring
▁conclusions
▁merchandise
▁Gob
▁Depot
▁monsters
▁Northampton
oped
waters
▁Swansea
▁camping
uren
offic
▁Tuls
▁Counsel
▁Mons
▁Pasha
▁overc
▁proposes
kt
▁lb
▁XIV
ificant
▁sheriff
▁lightweight
bil
▁Conway
▁terrible
▁Gerard
▁retailers
▁tuberculosis
ceans
▁desperate
▁terminals
▁discovering
▁dissatisf
▁convenience
▁ads
▁Sieg
▁uncom
▁checks
▁upgrades
▁flame
▁examinations
▁freestyle
oic
▁3:
▁sandy
▁Antwerp
▁~
▁dispersed
pts
▁Robb
▁Irvine
▁jumped
▁skelet
▁charging
stud
▁quartet
visional
▁cree
▁Laurel
▁Refuge
many
ishnu
▁Vaughan
▁imprint
▁Mansfield
cool
▁Ole
▁Abbas
Ts
rs
▁therap
jet
aras
▁Nicaragua
▁2)
▁owed
fessional
leep
▁immense
▁reelection
▁Sidd
▁Interest
prov
color
▁Hague
▁everywhere
▁suppression
▁Payne
▁radial
▁constitutes
ockets
▁Normal
▁consonants
57
5%.
▁intimid
cas
▁Rit
▁UFC
▁scream
▁Birds
agascar
Inter
▁mentally
▁archbishop
▁facade
▁Turnpike
▁escaping
▁Eighth
▁productivity
▁Heroes
▁conclude
words
▁Sach
▁eager
▁Rainbow
▁Uttar
ftwaffe
▁Politics
▁administrators
▁glory
▁Alberto
Hy
hea
anus
▁Mih
▁Graph
▁Embass
▁WJ
spoken
▁Lightning
▁Bee
▁Ske
▁Confederacy
▁Spike
▁nouns
▁Voy
▁prolifer
▁twinned
rar
inement
▁swords
▁Protestants
▁hostilities
'"
▁KT
cars
▁Wak
ogenesis
▁verdict
▁uniqu
▁airplane
▁detained
▁Subsequent
▁crem
▁Devils
▁obliged
▁hed
▁Roch
▁Fut
▁1865,
▁Africans
▁à
icol
▁font
▁dissent
▁thunder
▁additionally
▁butterfly
▁1911.
▁Marse
▁vampire
▁watches
▁Pok
▁stereo
rapeutic
▁syllable
▁backs
▁Rear
▁rockets
aea
neo
▁Glac
▁deadly
▁Giuseppe
▁Laurence
▁foreigners
▁Rupert
▁transp
▁1854
▁Gaza
▁Rodney
▁basal
▁worried
wana
aline
▁Protocol
▁duke
▁compare
▁Snake
▁Beethoven
▁SL
▁Scandinavian
▁absorb
▁exchanges
▁Kappa
▁Totten
▁Rost
▁granddaughter
▁SU
educational
clipse
▁exams
▁tones
holding
ahi
▁irrit
▁quotes
culiar
▁render
itious
▁Towards
▁Cyn
▁strat
▁Lily
▁Tact
▁parallels
▁substituted
▁3.2
▁pneumonia
Columb
▁Sophie
▁coincided
teacher
▁susceptible
▁calculation
ajo
▁Bologna
HT
eaux
rogen
▁Coc
▁iTunes
▁cottage
▁advertised
▁Maid
▁balloon
▁fundraising
▁laboratories
Liber
ivial
▁infring
home
▁potassium
Chinese
▁Lowell
ithmetic
omp
▁Castile
▁Germ
▁Chennai
lio
Islam
▁Till
sign
▁poisoning
icked
Soviet
▁thumb
▁Wash
▁deport
▁metallic
▁pleased
▁addiction
▁happiness
river
▁MLS
▁Gla
▁arises
▁suffrage
▁Poor
▁Relief
▁amendments
Def
dog
▁1.8
▁toss
▁varsity
▁Fritz
▁Bucharest
▁14-
▁1858
▁Lough
Indian
▁Qatar
ceptions
▁Thess
ivorous
▁Ladies
published
▁obligation
▁battleship
▁mammal
▁2008–0
▁ashore
fle
▁Nassau
▁SEC
agraph
▁Talbot
▁portraying
▁Yas
▁Ibrahim
▁stronghold
▁Galway
clock
▁Sofia
▁appointments
▁Galaxy
▁Garrett
Es
▁methyl
▁qualifications
▁receptions
urnal
istries
▁reputed
▁rewarded
▁intellectuals
▁Mog
▁Giles
IX
▁Coul
chedelic
▁accession
▁Gru
▁1851
▁watts
▁Compos
▁Tehran
▁Orb
▁Telugu
▁admiral
▁lever
asso
▁Trains
ART
▁satire
▁sociology
arez
tti
▁loads
▁Stam
▁Purple
▁honoured
▁Um
▁northbound
otechn
▁Style
▁Extra
▁styled
Vict
▁Barr
▁fauna
▁embraced
▁WT
irming
▁dictators
▁disappointment
▁Pueb
estial
▁Marty
▁bilingual
prim
▁deton
▁payload
▁diploma
▁Watts
▁airborne
▁Ebert
patible
▁Mirror
rums
▁explosives
▁disappearance
appropriate
▁Byrne
▁reinstated
▁cob
▁amphibious
taining
▁scrut
▁Peruvian
▁analogous
▁happening
▁bod
–196
▁Nun
▁Mouse
▁Rivera
▁intrig
▁8,000
▁economist
-1960
▁Mystery
▁unnecessary
▁Estonian
yss
▁Osw
▁Platform
▁foremost
▁Nearly
▁envision
▁Aleks
▁Angola
▁canals
ophil
▁petrol
▁Via
▁Hoover
▁Sheikh
▁chooses
▁namesake
▁Mist
▁12,000
▁retrieve
bright
▁screw
▁Marvin
▁cliffs
▁readings
▁ideological
▁Earlier
▁Evan
▁manifold
▁spinning
▁Lester
▁cavity
pex
▁Claus
▁stunt
▁nightclub
▁Sophia
▁unlock
▁gradient
hom
▁Seg
▁1896,
/3
▁differed
▁undertake
▁Anch
▁circa
▁capped
▁transparent
acio
▁Pomer
▁aliens
agreb
ustain
▁Caval
▁Category
▁proprietary
▁Steele
▁heroic
▁Dat
▁whit
▁Proto
▁postponed
auk
▁Cum
▁Basel
ulas
▁pyramid
ooked
uxe
▁clip
▁Technologies
people
▁appreciation
▁Electoral
▁Guerr
▁Chatham
▁playable
▁customary
▁commemorated
▁forecast
▁Peg
▁Hussein
▁Concer
▁quarry
▁coefficient
▁arches
continent
▁antiquity
▁exhausted
Fi
After
Pacific
▁genocide
▁washed
Canada
▁Majesty
Bet
isson
▁quote
▁Ruther
▁synagogue
▁remastered
dong
▁Alpine
▁geology
▁alternatives
▁neglect
▁superseded
▁Ae
▁1855
▁mortgage
▁Gert
▁interceptions
▁USAF
▁southbound
vre
▁dramas
grav
▁Behind
▁hydrox
▁bacterial
ysc
▁Ptolemy
arie
▁Rim
▁Piano
▁aggression
▁protesters
/2
Bay
shan
▁Tus
▁Myan
▁Doming
▁replay
▁semester
▁sap
▁Embassy
▁cocaine
particularly
▁Million
▁moisture
▁0.3%
▁inequality
▁plumage
erion
▁probe
▁explores
▁bug
▁lovers
▁imports
▁touched
▁Standing
▁Enc
▁earnings
igm
afts
cken
▁clans
obil
▁Voiv
▁nave
roscopy
▁castles
▁promoter
ronym
▁1,200
estinal
ocence
▁Kolk
▁asserts
▁Property
eworthy
▁Kaiser
▁discount
▁Coy
▁encourages
öm
▁1856
▁nasal
Spanish
▁tricks
▁brid
▁142
▁Bres
▁Gilles
▁inert
▁obstacles
▁cooked
▁Sterling
▁genius
▁2,500
▁sacks
▁Pioneer
▁Interactive
asting
▁redund
▁incidence
AI
▁Abdullah
▁intercon
▁Osaka
▁chant
▁Northumberland
jar
▁mounting
▁Pip
▁Wis
▁renewal
▁Cobb
▁Dram
▁hailed
▁softball
lux
▁Genoa
▁Plans
▁1913.
▁confronts
▁Hess
▁Glory
nership
▁Rodriguez
▁intentionally
Now
▁reflex
▁penc
cie
▁logging
▁Wolfe
NU
enko
▁vapor
cellular
urations
eka
▁1895,
atorium
▁Established
▁intercepted
▁Parts
59
roqu
▁Rig
▁lattice
▁ankle
▁40-
▁rud
/20
ushi
▁cortex
itsu
▁playground
▁Chern
▁globally
▁Elisabeth
▁generators
▁Bant
▁energ
▁worthy
▁Territories
lower
▁flute
rawl
▁Mandarin
commit
ivision
▁Casino
▁IB
▁1889,
storey
▁Busch
uttgart
ometry
▁orthodox
▁Beech
▁turbines
▁Clifton
▁Brittany
onduct
▁Madagascar
ailles
▁cites
ruce
▁gym
▁Wise
▁patches
▁CK
▁$100
▁passport
Rec
meter
▁Sched
▁Granada
▁comparative
Cy
riger
pid
▁GE
pill
▁Hip
▁objections
▁Edith
oby
prop
▁Xin
Smith
▁Myanmar
▁peasant
mberg
▁Bahá
▁risen
▁regent
▁Lockheed
900
ossa
flower
Ms
hyd
▁Tran
▁beans
▁tragic
▁peripheral
▁1908.
▁Everton
▁Pulitzer
▁Wilderness
cane
▁finances
▁grossed
▁peculiar
▁Meadow
phonic
▁induce
▁composing
▁sophom
Bur
▁heights
▁stationary
▁specializing
▁demonstrating
▁TF
wife
▁Wah
NE
▁Jed
▁Breton
rash
▁Nut
▁problematic
▁Lionel
▁nationality
notes
▁Lowe
original
▁postseason
▁skirm
▁1870,
▁bottles
▁Plato
▁sells
▁Indoor
▁subscribers
▁Mord
thy
▁Linn
▁Points
▁recalls
Net
▁4–
odor
falls
▁Gret
▁Loth
▁fixture
▁mandated
▁$2.
ounces
▁revelation
.-
qi
▁Mega
tshire
▁Deutsche
▁averages
Raw
marked
▁sauce
▁sidew
poem
▁Traffic
▁seventy
▁pa
nsic
▁hunters
rocod
rification
▁Rw
▁Mys
▁Vocal
▁tired
▁Taking
▁Resolution
▁UTC
▁Latter
▁Poss
▁enjoys
▁Samoa
▁brigades
▁filmmakers
▁institutes
▁assignments
bled
▁Edison
▁Tale
▁Gujarat
▁roadway
▁exceeding
highest
ricting
▁Sent
▁titular
▁wells
▁relieve
▁maturity
bles
▁$31,
▁Medieval
▁zinc
▁Pig
▁domest
▁Mackenzie
▁baptism
▁excited
hang
▁Cars
▁Evidence
▁paradox
▁empirical
Az
developed
▁definite
Dragon
▁Charlton
▁visibility
▁Keys
ibia
attered
▁Ayr
▁Lamp
▁Juliet
▁networking
▁illustration
unit
▁RS
▁erupted
▁degradation
▁unification
▁Sens
▁discourse
▁acquaint
.1
▁mating
▁LC
▁Fla
▁methodology
▁stained
pron
▁majors
▁Kop
▁IS
▁marrying
▁frustrated
▁Tap
▁Gior
▁Strange
mese
▁apprentices
▁143
▁Xia
▁jokes
▁Zagreb
▁Tanzania
▁engineered
icker
▁impose
ureate
▁Wigan
▁Schwarz
▁Ain
▁plag
asures
unks
▁Nou
▁Commissioners
▁shoulders
▁clips
▁Porsche
MG
ibi
▁Uzbek
▁Regent
▁141
▁frigate
▁pitches
esta
▁drill
▁excluding
▁Ala
▁Hos
without
▁137
▁Mosque
▁Teachers
▁deported
ographs
ryn
▁Oss
▁famine
▁assumptions
von
pard
▁Rath
▁Charity
▁Written
Din
▁aft
▁Britann
▁exciting
▁treatise
▁attribute
▁tips
▁Buddy
▁glucose
dependent
▁compressed
"/"
▁Neville
▁136
▁IGN
▁$30,
ovic
cultural
▁Apostolic
▁inaccur
▁meanwhile
▁Piper
▁tremendous
evil
ulatory
▁5000
romatic
▁inverse
vir
▁Consort
▁Tomb
▁kits
▁Hof
ctica
▁Mate
▁Platinum
▁chancellor
were
▁Sword
▁alert
▁Quartet
▁sake
▁Metacritic
▁(5.
▁Browne
▁evaluate
uins
bas
▁dol
▁3"
▁recruitment
name
▁Outer
omac
▁(25
icism
▁Blackpool
▁immigrated
ARC
won
▁collar
▁stairs
▁sampling
ayas
▁Sev
▁supplying
▁Christina
▁labelled
▁bolt
▁blown
▁Beauty
▁villains
▁capitalism
▁blades
▁dismantled
rique
Vs
▁packed
▁melodic
▁infrared
▁improv
▁spinal
▁Fors
▁TR
▁utilizing
▁newest
▁2%
▁Idol
▁mistakes
▁protocols
mental
▁Fasc
Four
▁Tou
▁unfair
division
▁Boul
▁Bills
identified
▁dissem
▁justify
▁Elections
release
luent
▁sergeant
▁morality
▁conditioning
▁cler
▁purported
arcer
portion
International
airn
▁deaf
▁Rolls
▁solitary
▁integrate
restle
▁robots
onut
▁μ
▁131
▁Epic
▁Chiang
▁Superintendent
▁Ultra
ád
▁MT
full
▁Dartmouth
▁backwards
▁absolutely
neck
▁sperm
▁Battery
▁allocation
▁Chong
▁thoroughly
sens
▁Midway
▁mirrors
▁Document
rait
▁Everett
▁considerations
▁Dru
▁Gov
▁cinemat
▁batch
small
▁100-
▁vendors
▁warming
rush
▁delta
▁histories
▁teens
ventional
▁Papua
▁fluor
erget
▁congestion
ummy
olphin
▁Riding
cen
arg
conf
itone
▁Braun
▁Applied
▁drained
▁fortunes
▁Coll
▁propulsion
▁Humphrey
▁Capt
▁Confuc
lusive
▁Occup
▁Europa
▁Somalia
▁Tunisia
organized
▁educator
-40
▁Alph
▁encoding
orns
▁Zam
▁ashes
pendicular
Latin
▁Jill
▁Fulton
ynes
▁fool
super
▁coral
▁exclusion
▁Oval
▁archipelago
abar
osynt
▁norms
▁Hoffman
▁calculate
▁Alternatively
lich
ismatic
▁exploit
typ
opath
▁Pepper
▁socialism
▁disagreement
▁Bury
brough
▁Pie
▁pulp
▁Jules
▁convincing
▁unexpectedly
Mir
▁Má
▁54.
▁Mau
▁Words
▁circus
▁topology
▁Psychology
elian
▁Royals
brown
▁glacial
▁dot
▁propeller
▁Kara
▁Verde
▁demonstrates
table
▁cents
▁Hansen
▁councillor
osi
▁fertility
▁Naw
Elect
orneys
▁airplay
▁exploded
▁Egg
▁bleeding
▁Andreas
▁Fortune
▁Blind
▁Quincy
▁epidemic
▁Why
onductor
▁behavioral
/4
ilis
▁relinqu
▁slender
▁…
▁Hare
▁Image
▁staple
▁refurbished
rada
▁Elliot
▁consul
Lo
akis
either
▁Norris
▁Stratford
azzo
▁shear
▁Presidency
▁correction
▁evid
ège
▁Ely
▁yielded
ietal
▁Satan
isors
▁1885,
▁illusion
adors
ße
▁Kind
akin
▁75%
▁sensory
iseum
▁Harding
▁Barrow
▁Audio
▁Willow
▁outline
▁Lincolnshire
▁fright
▁500,000
▁ambient
▁nineteen
▁consistency
sonian
▁encirc
▁analyses
▁coronation
▁restructuring
▁revive
▁Hyper
▁tires
▁Ans
▁Benny
▁Dreams
▁indicator
▁approximation
▁printer
▁fishermen
tta
▁Analysis
▁tran
rology
▁racist
▁unfinished
▁Gloucestershire
▁SK
OK
ocrat
▁stal
▁sleeve
▁bags
▁</
short
▁lean
▁tatt
▁Copper
▁Bosnian
▁Governors
▁reorganization
aryn
unate
▁tracked
Ele
▁chromosome
▁harassment
Radio
▁outc
▁Russo
▁wires
▁weights
▁canonical
.'"
adder
▁Detective
▁reviewers
▁89.
▁investor
esy
mass
▁apple
▁Strauss
▁deadline
▁minimize
▁amusement
▁beams
izarre
▁Clive
▁Hilton
▁Olivier
▁Joa
▁1897,
▁7"
▁descending
xter
▁emphasize
▁exits
▁wond
▁ethnicity
▁1812
▁Beautiful
LM
faced
worthy
▁avant
zero
▁sanctions
▁(1970
▁Kraków
▁obviously
rizz
▁Hawth
▁Bangkok
▁Thornton
▁Amer
▁Lakers
agus
ürtt
▁laund
▁puzz
kir
▁Edmond
▁139
▁Sail
omotive
▁Partnership
▁scholarships
uces
hythms
▁Bruins
▁HS
▁Amph
zier
▁Terrace
▁00
▁spiral
▁neglected
▁Stream
▁spectral
oway
▁hipp
▁della
parts
▁Herr
▁oxidation
▁Qué
▁acquitted
▁Kah
▁gravitational
▁colspan
▁energet
▁disabilities
▁grat
▁Stuttgart
▁Luk
▁proving
▁Hercules
▁Marquess
piring
▁vacated
▁Bavarian
▁documentaries
rones
▁Pompe
▁Consult
▁Pug
▁Marcos
iren
onium
▁dos
ansen
▁stain
▁$20,
▁Josef
▁Coastal
▁Dominion
▁Products
▁Dut
▁XIII
▁Brain
▁Historian
▁Aviv
▁catcher
cé
▁stole
rolling
▁Watt
culture
▁Taiwanese
Cast
▁Intro
▁trusted
▁Nigerian
▁seaf
minent
▁slowed
▁Wilmington
ález
▁Perm
▁trustee
Mid
▁CV
▁Brick
▁platoon
▁Limerick
▁phylogen
▁formulated
▁sabot
▁reigning
▁radioactive
▁menu
▁Episode
▁Lus
ihar
▁Rama
▁Nay
▁fresco
▁grocery
▁illegitimate
▁redesignated
▁instability
▁Reconstruction
▁harmful
▁Napoleonic
▁Romantic
UM
▁caution
▁favourable
▁tears
▁praising
▁supermarket
▁1200
cycles
omesday
_8
▁Exp
ewell
rador
▁Mercy
▁Judith
▁revital
▁generalized
/19
▁Dante
▁confirmation
▁Airbus
ulties
▁Marquis
beh
▁50-
▁elevator
ucle
▁wrap
▁Networks
▁Zap
▁Rodgers
hai
▁Wii
▁1894,
▁surge
aleigh
▁expulsion
ride
authored
▁candidacy
▁hij
▁88.
▁affinity
▁confiscated
▁Kurdish
▁fragment
ded
▁pays
iaison
▁Wille
▁vegetable
▁Beer
▁Spy
▁Bundesliga
▁photographed
aroo
▁Neolithic
▁Gymn
ál
David
Max
garten
▁Wheel
▁Kyoto
▁jacket
▁Daytona
▁padd
▁León
▁loops
moor
Greek
▁arising
▁generous
▁Stras
▁hears
▁tombs
▁Eva
▁USD
▁Wizard
ruz
luenced
▁departing
▁concession
▁overturned
▁distributor
ürttemberg
▁Nationalist
▁Nue
▁podium
▁coefficients
▁motiv
▁Cameroon
▁Pavilion
▁baseman
▁sam
▁Odd
▁passer
vance
Class
▁amass
▁Zhao
▁mound
▁defects
▁Nationals
▁fel
▁knights
▁bestowed
esto
▁Investig
Ali
▁Hassan
▁confident
▁1888,
▁killings
Free
▁neurol
▁perimeter
los
▁Mafia
▁approve
▁incarcer
▁25,000
▁Peck
▁Sale
public
▁simplic
▁beloved
▁Went
▁nm
▁Cree
▁prosperous
imp
▁Jude
▁brush
▁ruin
▁depths
▁questioning
Dem
tender
▁reprised
▁tortured
▁2007–08
▁lifting
▁acre
▁tuning
▁ceramic
ocytes
▁bandwidth
▁Conversely
▁240
▁Mitch
▁tiger
▁grains
▁Dolphins
esch
▁Sept
▁relics
▁Antoine
▁Younger
▁Cornish
ea
▁Pens
▁Tram
▁donor
▁assured
▁Armenians
▁puzzle
▁Siberia
▁presently
cod
▁String
▁Freeway
▁excavation
Fore
enter
sponsored
▁Bahrain
▁Johannesburg
Last
▁Bam
▁disciples
▁Enterprises
LT
fair
▁Happ
▁Nice
asonry
▁Brotherhood
utz
▁narrated
▁AAA
▁Das
eldom
▁panc
idelity
▁González
▁Palat
amel
ación
▁inactive
▁landmarks
gir
▁perce
BP
▁Lives
ults
hetto
▁Honduras
▁affordable
ascus
nection
▁Bulldogs
▁livery
▁Warrior
▁interception
▁criticisms
Ge
Dream
escop
hadow
▁maid
mostly
▁deliberate
lsen
accept
▁Glacier
▁dé
▁Esk
▁1846
▁reck
▁campaigning
▁dispro
▁planting
▁Prayer
▁25-
▁hanged
▁1880,
▁Mesopotam
Louis
▁Tottenham
▁weighing
icacy
▁Molly
aler
▁fathers
▁activism
▁precious
▁Huang
▁Venezuelan
▁deficiency
▁Peterborough
▁vertices
▁Chak
▁infants
ilon
Sunday
▁divides
▁consultation
▁simultaneous
idas
▁souls
▁urine
▁premise
itations
▁pledged
▁NZ
▁archaeology
▁Congregation
CDP
Rev
ND
geois
▁immunity
▁Als
▁riff
▁predominant
elman
▁Kolkata
▁barrels
▁Thatcher
▁constellation
▁Hulk
▁showcase
▁charities
▁Provisional
▁Satellite
▁respects
▁1893,
▁examining
jack
adin
▁cope
▁compelled
▁Shot
▁securities
jor
▁Bian
▁Entry
▁Hitchcock
▁economies
▁wip
▁Prec
▁benefited
▁builder
▁upright
▁transist
▁Hudd
anners
▁Clar
▁Famous
▁upwards
▁wetlands
▁trumpet
▁Scouting
▁Dome
▁handles
▁Tribunal
▁humour
▁boiler
▁FDA
▁alpine
▁pillars
▁domination
▁Seal
avis
▁Mast
▁separates
▁Mint
▁Zur
▁rust
▁32-
elves
hak
▁concurrently
▁gloss
▁interfere
pack
▁dissert
riesthood
▁(+
inny
street
▁commissioners
▁Maggie
▁generates
fur
vic
▁1892,
▁suffers
▁specialists
▁Manufacturing
uti
ansom
▁Savannah
▁Afro
▁transcend
▁amalgamated
NI
▁Strath
▁bundle
awan
▁Kuala
▁Falcons
▁compensate
▁timeline
▁foul
▁Chatt
▁Overs
▁spends
lination
aley
▁1905.
▁inspect
▁Tulsa
▁militar
▁pour
script
▁pumps
▁mortar
forcing
▁Corridor
▁sixteenth
▁prostitution
metre
▁Sadd
▁promotions
▁disl
Battle
▁symmetric
▁Dais
ilight
mu
▁Havana
▁curtain
nery
▁Mercer
▁travelers
▁manipulation
nom
mount
▁0.5%
▁Higgins
▁neighbours
▁ribbon
LL
▁Superv
▁weaker
▁buyers
▁literal
▁exploited
Ret
▁Qin
▁Urs
heart
▁Levi
▁Weiss
▁Noel
▁motifs
▁Autonomous
araoh
▁Bing
▁pant
Fire
▁annoy
▁dignity
▁jumps
▁Cups
alford
▁ladder
▁bloody
▁computational
▁Vy
▁Investment
FT
▁Classics
▁Few
▁stall
▁manned
garde
olulu
▁Teams
▁Rover
arist
▁glut
▁buffer
▁hormone
▁1849
▁Pilot
▁Monthly
▁Randall
▁Orioles
▁Monmouth
▁liquor
▁Merchant
▁specialised
▁Kramer
▁builds
▁encoded
▁Beir
▁filters
▁Dharm
▁nurses
▁finalist
anian
tiles
▁nic
▁$25,
▁Attack
▁specify
▁coincide
▁Resistance
▁suggestions
▁grazing
▁Assyrian
jects
Prince
▁Specifically
▁damp
Pl
▁$26,
▁Hole
imated
▁ME
emann
▁notices
750
Luc
ík
enery
History
▁aiming
▁1852
signed
▁Recordings
▁enlist
ouk
▁Chit
▁disliked
drive
▁neutron
▁converts
▁critique
Ser
ivist
ipedia
▁preparatory
natural
▁Electronics
odeship
▁Belmont
▁Gabri
▁caste
ouncing
orio
▁Active
▁1853
▁Sain
▁Wide
hael
▁defendants
▁illustrate
▁strengthening
Fe
▁colonization
▁arithmetic
areth
▁juice
▁(0
▁irre
icho
▁germ
hetics
ursion
▁twist
▁battleships
ificates
▁Airborne
dish
▁seab
opening
▁1909.
än
Aut
Why
eddy
ieft
▁Wein
▁Cover
▁Zü
Hel
_11
▁lone
▁1907.
▁ecology
▁implicit
oxic
▁deleted
▁canoe
astically
ranes
▁Vishnu
▁destructive
ogly
▁bend
▁Regina
▁saxophone
ohan
▁sanctioned
acey
stairs
▁splits
cessions
acha
▁Whig
▁grie
▁Tina
▁lyrical
▁Acting
omorphism
▁Eaton
▁boots
vester
▁dressing
▁routinely
ilyn
▁busiest
▁Thereafter
alde
atore
▁punished
▁Leinster
arck
Captain
▁unused
▁bordering
Mic
▁disco
▁Classification
▁AU
▁hap
▁Carnival
▁Herod
▁angel
upta
▁Laos
▁pathways
oran
▁Vie
omat
▁Crescent
▁Guth
▁flux
▁Volkswagen
▁Kak
▁Carm
▁Audi
clusive
▁Territorial
▁Nina
▁contributors
▁Orient
▁jewelry
▁POW
▁Shrews
▁hatred
▁prototypes
▁Insp
▁limbs
▁Archive
▁BP
▁aro
▁ray
▁Feld
▁Robot
▁Gentle
▁formulation
émon
▁Archie
Americans
▁harmonic
▁Archibald
▁localities
▁pharmaceutical
▁arth
▁moderately
▁wooded
▁Fuji
▁Medina
▁backward
▁contradict
▁Unix
itives
▁Rocks
▁Apache
▁dependence
aan
▁Abel
▁Alto
planes
▁marathon
▁disturbed
▁appreciated
pec
▁Vine
▁Chick
▁benz
▁Lifetime
▁Archaeological
▁Revenue
▁traction
tef
▁$25
▁flats
▁Irene
tically
▁Derry
▁Versailles
Frank
Mah
▁noon
▁melting
▁Oaks
istice
▁filing
jing
▁Levy
▁hunger
▁periodically
▁Polytechnic
▁750
▁Hog
onyms
▁Caliph
▁Coliseum
vity
▁Farmer
▁resorts
▁trafficking
▁relocation
Power
▁ignor
▁canvas
▁Wilkinson
▁satisfaction
▁MacArthur
kenny
▁demons
▁deputies
▁Lantern
▁Emmanuel
▁Dise
▁arrange
▁volunteered
designed
ctive
cus
▁Carmen
▁Potomac
▁Schneider
▁Aurora
Kar
▁consume
▁Jol
gement
▁Personal
▁sunlight
▁supplemented
▁2005–06
Hop
▁nickel
▁Gilm
degree
▁accomplishments
▁bog
▁Ident
▁tutor
▁committing
▁EA
ranked
▁diverted
▁businessmen
▁Babylon
▁Reports
▁um
▁Morse
▁Rajas
▁Sonny
▁Fowler
▁Mining
hoe
▁prophet
▁seventeenth
▁roy
▁glor
▁Certificate
▁1891,
coni
▁envisioned
▁lawn
▁Timber
▁rhetoric
staff
▁fug
▁Boone
▁Andhra
▁Mae
▁Dogs
Israel
▁Valle
▁pavilion
▁1847
idable
","
▁Named
▁pirate
▁11-
▁Crane
▁chemist
▁eternal
ttes
▁float
▁cockpit
stall
▁Parent
anity
onstant
▁Mayer
▁supplier
▁Brandenburg
▁recognizing
▁routed
▁supportive
▁transplant
▁Cris
▁Animation
igue
▁pept
▁billed
▁Miranda
▁Brab
▁seam
Golden
▁Sabbath
▁posters
▁liturgical
▁Tad
jee
▁Antarctica
▁acknowledge
▁1845
▁Boot
▁differentiate
asket
ayat
raction
▁Lorraine
▁registers
▁Sting
▁Sunni
▁folding
▁(2,
▁Romance
▁barred
▁raises
▁spider
▁mitochond
▁Lawson
oug
upid
▁Vig
▁tails
▁',
▁1906.
▁Bentley
yah
▁bricks
▁Journey
take
▁1871,
▁Rutherford
▁multiplayer
▁spokesperson
▁Johan
▁Quant
Stars
▁anyway
▁signatures
').
▁Sears
▁Baxter
adt
opa
▁blessing
▁consolidation
growing
▁alterations
▁Spit
charge
▁incorrectly
▁1837
▁panic
But
orb
▁Guest
ouraged
▁picnic
▁Nichols
▁rooted
▁Kensington
▁pawn
'),
abis
▁Mole
▁Complete
umann
apeake
▁1886,
▁Osborne
▁Communists
▁litigation
▁Weaver
▁Taliban
Never
inspired
▁Bishops
bernatorial
inds
▁jets
▁Olive
blood
▁Lenin
▁invade
▁refriger
▁commitments
Da
oti
▁-8
▁Brennan
▁sympathy
▁arrondiss
²),
Rober
▁climax
▁catching
▁60.
▁fol
▁gaps
rights
▁Loyal
herence
▁Fairfax
▁Gwyn
erseys
▁Harriet
▁£2
▁Rout
▁shooter
LF
▁(6.
▁Poe
▁Poz
tering
YP
pectives
▁Restaur
▁2004–0
▁lobbying
fif
tsky
▁banker
Cola
▁4.5
▁XVI
▁Adri
▁Ensemble
▁illegally
▁prevailing
aso
▁BT
punk
▁forged
Australian
▁Aless
▁Blo
▁Spaniards
▁Buffy
▁wrist
▁duplic
▁Karachi
Pass
▁Lump
▁freezing
▁comparatively
▁Cz
▁UV
▁podcast
▁disagreed
▁nice
thia
lander
▁Bridges
Sea
ogi
▁Rider
▁modify
▁convened
▁firefight
ombie
▁Madame
Cons
rach
▁Burmese
▁Settlement
"<
racula
▁outpost
Enterprise
▁residency
▁Expeditionary
▁mush
affiliated
▁Xu
▁Lahore
▁Lauren
▁massac
▁creators
▁invading
▁shelters
▁1860,
▁ventures
▁observatory
oscop
▁Hyderabad
matical
oughton
▁Biology
▁symphony
opsy
▁void
gets
loading
▁Bullet
▁negatively
umper
▁Bold
▁Khal
▁1881,
▁calib
▁mural
▁slated
▁threatens
▁thirteenth
ritt
▁Hodg
▁Shrewsbury
▁Quality
▁severity
▁cris
▁syntax
literally
▁Damascus
deb
▁MO
▁Uncle
▁Ashton
▁Stanton
▁Torn
hara
▁1902.
▁Stephens
▁Zhu
▁Roses
▁ambiguous
▁musk
▁Touch
:3
▁Ivy
▁asymmet
▁bullets
station
▁Bacon
wi
▁harv
▁Foods
▁17-
▁Gros
▁unitary
ihad
▁Counter
▁Whether
Ev
Mary
▁Mozamb
idelberg
▁proclaim
▁1600
▁Kemp
▁consulted
▁2",
pressive
acia
itches
▁arrests
▁u
formula
▁Consumer
▁bubble
▁Donovan
▁Evangel
▁contamination
gger
▁55.
▁MiG
▁portrays
disciplinary
▁compose
▁advancement
▁Llan
/0
▁Shock
▁Treasurer
Bob
▁ineffective
▁(24
▁renumber
▁euro
▁landowners
▁Yes
Sports
filled
▁1901.
▁7,000
▁Basilica
▁humidity
▁universally
▁investigators
▁Judah
▁catalyst
▁2,0
▁Ion
▁cage
▁rematch
▁faç
social
▁Worlds
▁weekdays
▁Taft
▁1867,
▁Coord
▁Macdon
▁inauguration
rades
▁Above
▁mutant
▁spherical
▁seap
▁Martine
▁resonance
▁deteriorated
Blood
Lord
lords
▁ponds
▁Wolfgang
▁courthouse
rob
▁Jaw
stars
▁dull
▁seldom
▁steals
▁warnings
▁Dil
▁Boer
▁McGu
because
▁monumental
▁prosecutor
▁disadvantage
▁abruptly
▁Xi
chev
▁Koz
▁Chil
▁versa
▁drilling
▁hearings
rude
▁Galicia
lop
▁$16,
▁Furn
ubishi
▁linebacker
agles
▁Gerry
▁categorized
Peter
▁evenings
umbria
▁sedan
▁Trap
▁lifes
▁Hobart
▁instrumentation
▁Architects
▁voluntarily
▁diagnostic
▁plaza
yline
▁boycott
▁RFC
▁Kand
▁Dickinson
▁logistics
▁RAM
▁pad
acies
estro
▁Immigration
▁exceptionally
▁DR
▁HC
▁1887,
▁rolls
▁Hesse
▁Forever
▁Emirates
▁Keynes
▁Schles
▁purchases
/11
inational
▁impe
▁outward
▁silicon
guy
Here
olish
ensation
▁incon
▁Perman
▁Appalachian
▁tex
▁Isabel
▁inputs
▁shotgun
▁1838
▁demos
acetime
udge
▁Dial
▁Fury
▁Quaker
▁disguised
fits
▁bred
▁crocod
1-
▁Wheat
▁Producer
▁discarded
▁2.4
▁surfaced
owe
▁0.4%
▁funk
▁pigs
▁Hez
Master
remont
▁integers
▁Districts
▁requesting
▁Buzz
▁secre
▁applicants
Entertainment
▁NS
▁Pang
▁Tyne
▁clutch
▁entrusted
quist
France
patrick
▁13-
▁Angus
▁apprentice
▁quarterfinals
▁Beirut
▁Michaels
▁caret
▁proves
▁Doom
▁Publications
ighton
ringing
aeda
▁Pull
▁raided
ourses
▁termination
▁Pah
▁carriages
▁prospective
▁buttons
▁Ré
▁accidental
Come
monary
▁sidel
▁virgin
▁setup
sla
again
▁unse
▁Coming
▁Ricardo
Kh
▁Incre
▁detain
▁melodies
▁AV
▁Animals
–201
enness
▁Conan
▁disag
▁somehow
▁Locke
▁commenting
▁southernmost
▁Coca
▁Honolulu
▁appl
ippers
▁piston
▁Cartoon
▁colorful
adena
▁Ding
▁Hanna
▁Quick
otus
▁Cyber
▁NW
fford
▁Quran
▁Wiltshire
vale
▁potent
▁viruses
▁confession
▁anthropology
▁Iroqu
▁nutrients
▁Explorer
▁misunder
▁redesign
▁enthusiasts
▁progressively
mur
▁Bourbon
▁Heather
▁masculine
▁prost
▁renewable
1.5
major
▁Nim
ocating
▁acronym
▁ornament
▁Eck
▁Wikipedia
▁prediction
▁bees
▁McCoy
▁bree
resses
▁cake
▁clash
orno
ateful
▁DO
blue
oren
▁Rao
▁Tobago
▁Eliot
▁Oswald
▁settler
▁$18,
▁Forrest
▁pageant
▁distributions
▁Lum
▁Premiership
▁Synod
anguard
Off
▁Wich
itored
▁Teresa
▁entrepreneurs
▁Paz
▁Acad
▁emigration
▁Virtual
uben
aspora
Del
▁terrorists
▁Leonardo
▁sophomore
▁transports
▁amounted
▁boroughs
▁evangel
▁hierarch
▁Whereas
▁1832
▁2008–09
▁selecting
▁containers
▁BB
leader
▁Scorp
conscious
▁facilitated
▁hast
indust
▁elegant
▁mercury
▁accessories
▁comparisons
▁rhythmic
▁oversight
▁excit
▁affirm
▁Islanders
sty
▁stellar
▁Jab
▁fins
▁1904.
Broadway
▁gubernatorial
oder
▁kidnapping
lev
Lost
▁Babyl
▁Deleg
▁orbits
▁compartment
▁Ich
▁Gale
▁dash
▁
e
a
t
n
i
o
r
s
h
l
d
c
u
m
f
p
g
w
y
b
,
.
v
k
"
1
T
S
0
A
C
9
2
M
I
B
-
P
H
D
R
'
x
F
L
)
(
8
N
W
G
E
5
3
4
6
7
J
O
z
j
K
U
q
V
:
%
–
;
Y
/
Z
Q
é
$
X
&
—
]
[
_
á
!
ó
í
ü
ö
>
<
=
#
?
²
ō
ä
ā
£
+
è
ć
|
°
ç
š
ñ
ł
ø
*
É
ú
ã
č
ū
â
α
à
ă
×
å
ô
ë
а
ı
ī
о
…
æ
и
ž
€
ş
ń
ê
е
ß
Á
Š
•
ș
н
ο
ð
р
β
Ö
μ
ś
ν
ρ
ا
~
с
ï
ι
{
½
т
ς
}
λ
в
τ
ý
ε
к
σ
ğ
л
ē
·
Đ
ʼ
Č
Ó
Ō
\
→
î
π
ř
κ
ò
ę
Å
Ž
Æ
ʻ
γ
ل
ì
′
ě
д
đ
ț
İ
ą
ő
δ
м
у
η
ω
Ś
Ł
ा
Ø
ė
ر
ż
ن
θ
्
@
Ç
±
ḥ
`
م
§
ù
்
υ
ṣ
ί
ệ
ي
õ
ṭ
و
י
φ
п
Î
й
я
ό
ά
ṇ
र
г
Δ
Ü
ʿ
û
ə
Ş
ب
″
б
ь
»
د
ו
†
ư
Ż
œ
ы
ч
«
С
ạ
≤
ơ
з
ź
س
χ
ţ
Ú
ר
µ
Σ
Þ
ả
ễ
大
Ā
^
≥
‑
त
ň
א
ה
þ
Í
ि
न
म
έ
³
ت
ی
ל
Ä
ύ
क
Ω
´
Ḥ
स
ế
ه
ή
Α
ع
王
К
ц
า
ṃ
ב
ŏ
ḍ
व
中
¥
П
М
∈
х
Π
州
ி
́
מ
ш
ị
В
े
ร
ש
ன
ồ
ح
子
А
ǎ
ी
ー
ầ
Γ
य
Κ
த
≈
ת
க
º
Б
प
山
ľ
ة
Ε
ж
¢
Р
ق
ŋ
ա
ů
ṛ
Λ
ल
Φ
द
ु
ζ
া
Ș
ف
ம
ʾ
ộ
ு
ش
ா
¼
ъ
ע
‐
ர
ħ
נ
ج
李
ξ
∞
®
¡
ह
ד
ŭ
ÿ
天
น
人
の
ņ
ψ
ũ
Д
文
Н
Г
ǫ
і
Μ
Ț
ं
Ć
О
ப
„
ン
ك
Т
ز
公
Τ
ọ
ṅ
ː
，
ो
ǔ
南
ग
À
َ
ח
ť
劉
ώ
ʔ
อ
ง
ĩ
國
་
一
ม
И
ם
வ
ǐ
道
ן
⟩
ज
武
⟨
ა
ก
平
太
Ι
ட
三
城
เ
श
ק
¾
ˈ
ல
日
軍
安
高
ġ
র
ய
ŵ
ố
ɛ
東
ი
ச
≠
്
学
国
Θ
元
أ
海
ю
之
خ
ն
פ
新
陽
כ
西
ว
Ο
ั
Л
¹
ἀ
ک
ƒ
ย
ờ
্
ứ
ậ
ℓ
張
上
馬
№
Â
ỳ
本
Ν
ф
ை
ิ
小
ắ
™
ɔ
金
ј
ָ
ब
Β
⋅
書
ס
ط
ḳ
ص
ớ
郡
Ñ
ּ
田
ส
ি
江
่
司
イ
ʷ
ր
ス
च
家
⅓
●
明
ʰ
和
З
神
ג
ų
ล
ந
ท
ט
。
э
法
ấ
พ
₹
щ
い
भ
北
ụ
ण
‡
ո
將
≡
У
皇
ẓ
ル
縣
生
陳
้
侯
五
ļ
）
ะ
郎
ध
ব
ष
ề
₱
行
이
水
♭
的
ண
ற
ё
ラ
都
ে
්
門
ḫ
ἐ
Χ
民
宗
長
̀
ћ
ɪ
ַ
林
石
Ṣ
ন
ḷ
華
ห
ի
अ
ト
學
Ф
光
ต
校
Ľ
ǒ
花
Х
Ἀ
河
ʃ
川
ี
¿
Œ
ِ
Е
ด
ῖ
ְ
義
ক
­
会
德
È
ŷ
Ṭ
原
楊
龍
白
ե
گ
史
帝
心
會
京
צ
ე
ủ
士
（
บ
ű
ז
್
地
¬
ỹ
下
不
、
成
ữ
部
ى
女
ッ
Ρ
年
Ħ
世
ִ
有
ు
⊆
院
ম
∨
ट
ῦ
方
ợ
사
ू
ল
대
ड
陵
ꞌ
ত
ク
羅
⅔
事
二
ุ
ẩ
社
ổ
ん
阿
ْ
Η
氏
十
り
ῶ
村
Ψ
し
主
周
̲
《
》
ア
后
ా
ὶ
四
我
Ч
ช
ै
ക
్
∧
ւ
通
ɨ
̃
غ
پ
ɑ
ள
リ
ử
う
正
ි
რ
Υ
̱
ค
無
Ц
న
立
Ọ
る
‰
八
教
春
য
ს
์
ి
愛
Ш
た
青
仁
黃
ª
ป
タ
∂
師
手
ُ
か
信
ķ
Ē
˚
ſ
ਾ
孫
স
月
漢
ി
古
₂
ṯ
ര
จ
な
木
ാ
胡
港
ǀ
ু
真
̄
ख
ʊ
口
Я
ර
ὐ
シ
路
香
ď
ّ
थ
マ
語
福
蕭
⊂
ῆ
清
ర
ẹ
।
玉
美
∴
合
න
英
Ò
ド
藤
台
기
九
ئ
吉
興
한
Ж
ہ
₤
星
Ř
ǃ
昌
宮
建
政
永
ֹ
आ
ோ
ო
ே
ಾ
ා
寺
志
記
音
அ
←
ロ
樂
野
Ḳ
ἰ
同
Ī
ὸ
尚
‚
♯
Ţ
도
字
定
廣
カ
প
ව
ത
ἄ
̥
‒
ĕ
と
梁
祖
̓
ض
ெ
代
կ
ḗ
吳
賀
দ
夏
忠
全
朱
ழ
แ
ლ
ĭ
徐
յ
ರ
レ
趙
ǁ
ක
ḏ
♠
拳
市
़
ま
국
آ
⁄
守
唐
尉
ʽ
♥
令
流
ಿ
化
夫
摩
고
き
ら
百
ċ
景
리
ɣ
ः
ು
君
়
⊗
歌
集
相
ȟ
虎
إ
ở
∩
自
ذ
ަ
ூ
ల
ジ
동
ʀ
॥
ข
∪
雲
주
式
理
韓
수
Э
ਰ
ℝ
정
島
康
空
성
ས
ự
利
华
夜
į
に
里
ం
მ
堂
章
ം
ნ
何
府
業
經
風
©
ු
ོ
ස
ศ
你
六
名
衛
ම
昭
魏
侍
Ì
沙
학
մ
ར
宣
ە
く
物
Ô
ĝ
キ
左
後
ു
ὁ
園
多
言
工
교
ї
ന
思
萬
ث
常
ำ
∆
フ
容
者
頭
원
క
മ
ู
婆
ך
ृ
ী
្
て
サ
松
宇
Ġ
ನ
お
谷
ィ
官
ս
మ
寶
曹
ල
千
那
ṟ
ừ
治
省
̂
∇
オ
保
ֵ
چ
♦
延
ʒ
ვ
は
チ
朝
良
지
പ
տ
ಕ
ウ
度
의
조
ֶ
」
コ
东
少
玄
÷
ǝ
ག
⊕
時
達
͡
গ
聖
ங
ể
も
壽
雄
ੀ
∗
こ
重
ǂ
ය
伯
区
宋
Ẓ
「
テ
津
ء
ട
ẵ
蘭
郭
Ū
御
關
თ
ὰ
↑
土
曲
ﬁ
শ
ỗ
ち
つ
ѣ
館
兵
博
如
孝
源
紀
鄭
さ
傳
囉
慕
ә
ׁ
ื
ไ
າ
バ
加
弘
火
ත
장
제
ொ
知
第
ު
उ
ད
်
ム
前
許
선
ި
వ
典
所
拔
等
무
다
Ṛ
刀
산
დ
⇒
外
̯
،
›
七
盧
চ
ো
佛
在
가
전
Ά
ằ
ャ
可
老
ද
₁
段
科
나
জ
エ
ナ
井
出
慶
秀
서
¨
ǵ
̌
ਸ
ṉ
内
右
梅
街
하
洪
開
ˌ
Ј
ธ
ི
茶
ދ
℃
아
ठ
♣
プ
威
구
ḵ
育
越
黄
আ
や
れ
基
시
უ
₩
ḱ
す
グ
仲
勝
蘇
間
문
ظ
త
ბ
라
！
ө
夷
連
陸
ꜣ
โ
巴
波
ಲ
വ
བ
↔
あ
っ
報
泰
신
Ḫ
禮
হ
ὀ
⅛
好
智
Ζ
∅
万
命
男
김
を
丹
力
友
ĉ
が
以
作
使
屋
耶
천
ܐ
ް
യ
ブ
先
秋
親
車
騎
부
자
ា
ミ
呂
情
界
ਿ
མ
分
舞
ප
亭
商
嘉
敬
杜
湖
于
伊
尾
族
阳
ϊ
Ա
デ
丸
場
孔
将
葉
進
限
인
њ
ን
☆
み
也
洋
ǣ
ʕ
ট
ஆ
ீ
ద
ದ
ല
∀
泉
ģ
ʌ
內
承
牛
特
√
丁
寧
龙
̍
★
け
镇
飛
̣
ौ
見
ϕ
ङ
ಗ
〉
ノ
回
局
戦
І
ೆ
ภ
秦
竹
어
͟
љ
រ
▪
是
￼
Ķ
Ю
ང
パ
善
柳
話
モ
崔
町
習
若
இ
ప
ⴰ
ニ
鳳
마
լ
護
酒
↦
律
陈
ŕ
ὑ
‹
よ
動
喜
崇
臣
貞
遠
鄉
화
Ď
Ἰ
∶
灣
球
草
ಮ
ṁ
仙
晉
甲
節
色
Ξ
ಪ
ವ
ນ
だ
ケ
毛
沈
銀
ŝ
∙
ズ
ュ
論
상
Õ
ք
ณ
ὄ
紅
경
ނ
ई
Ἐ
∘
隆
ṓ
ハ
姚
惠
目
超
鎮
보
영
Ğ
ʹ
գ
交
直
補
角
马
鬼
일
종
ಯ
ษ
ἱ
ツ
メ
ɬ
ḇ
ゃ
로
우
Ð
ే
〈
で
娑
վ
छ
ུ
ἔ
ダ
居
殿
蔡
ޫ
స
ት
え
恭
盛
臺
術
공
इ
ེ
唱
富
薩
소
ር
ビ
久
夢
用
范
起
韋
馮
ھ
މ
ँ
ಸ
හ
修
岳
橋
次
ই
ਨ
ಂ
ẻ
ᾶ
程
雅
面
스
घ
ਕ
ỏ
ὴ
ガ
体
共
功
张
念
株
榮
機
貴
세
Հ
ए
გ
ἡ
儀
入
来
ڠ
ܝ
འ
乡
委
布
死
鄧
陰
ɓ
ʲ
ـ
ග
ặ
傅
克
兒
技
茂
门
順
Ő
ү
հ
ತ
ན
ⁿ
∠
伝
母
陀
ց
ਤ
佐
叔
員
版
오
孟
才
根
演
袁
ץ
倭
拓
桓
烏
爾
能
襄
豆
食
ണ
ෙ
ỉ
宝
濟
賢
身
长
회
ਹ
സ
丘
刘
包
葛
赤
ղ
ẽ
■
今
想
打
琴
訶
足
雨
강
ɡ
զ
թ
އ
ച
ේ
尼
形
影
提
步
臨
薛
運
電
麻
ɲ
ރ
फ
ญ
ስ
ក
め
房
楚
督
要
解
语
ʉ
గ
ョ
乐
嚩
密
錢
ା
そ
セ
书
刺
苻
藏
유
현
ञ
ਲ
ા
య
任
制
广
杨
極
洲
烈
燕
羽
諸
隊
魔
魚
진
해
դ
ਮ
േ
じ
奇
干
彥
彭
派
齊
남
연
Έ
伏
园
圖
头
穆
荊
박
에
ਗ
ੁ
室
支
米
雪
靈
ާ
ී
ผ
ḡ
品
店
研
紹
麗
민
호
ȝ
ѧ
ף
ხ
管
詩
謝
¶
Ê
ວ
↓
ば
ェ
了
奉
季
精
།
ḻ
意
究
造
首
駅
黑
군
ƛ
ں
ড
ള
ာ
አ
ស
○
ボ
劍
得
桂
洛
為
비
ĺ
ǧ
ብ
初
別
慧
果
池
說
단
̨
ٹ
ভ
კ
ἴ
ῥ
半
普
益
여
ষ
ಳ
း
ろ
县
号
察
恩
望
卿
棋
比
深
瑞
由
관
ў
ལ
ም
揚
與
黎
￥
ڤ
ळ
ใ
客
斗
早
父
芳
蒙
衣
미
중
�
ɒ
ɾ
உ
ქ
∃
協
嚴
拉
放
樹
洞
童
菜
𐬀
ʁ
շ
ਦ
ถ
█
悉
珍
聞
莫
農
雷
鮮
鳥
¯
ɐ
բ
ے
୍
ಬ
ὕ
ベ
休
來
战
斯
樓
浦
範
統
裴
議
雙
ɫ
ტ
ヤ
倉
军
團
約
豫
қ
助
務
固
懷
留
船
邑
랑
야
ܪ
ং
ಡ
ງ
ັ
⊥
□
わ
俊
僧
嶺
最
条
森
聲
觀
迦
鹿
𐌠
ລ
呼
希
戸
警
顯
바
안
Ý
ʋ
శ
ມ
မ
∑
區
尊
珠
紫
雍
는
ஞ
』
從
權
蒲
誠
速
삼
을
Ἑ
ふ
坊
宏
憲
溫
熊
登
祭
羊
落
风
̪
থ
པ
『
せ
活
양
은
태
ɕ
̈
є
ീ
ට
බ
ል
佳
再
印
單
奴
岡
易
然
獨
պ
ֲ
ੰ
ദ
ម
ァ
姑
孤
尹
授
殷
汗
电
蓮
象
왕
ĥ
ැ
ອ
ྱ
ይ
向
渠
经
董
訓
賈
選
鐵
黒
Ċ
ˀ
ও
డ
ສ
ະ
ྲ
Ḍ
Ἄ
乙
去
宿
戰
朗
盟
红
菩
鍾
铁
계
당
방
ŗ
ȳ
ˁ
΄
অ
ৰ
້
ℂ
业
亮
他
健
其
哈
场
姬
實
性
溪
線
總
裕
백
Ɛ
̩
ђ
ধ
எ
ℤ
⅜
≅
ワ
勢
塔
师
班
芝
體
魯
˘
ˤ
ਬ
ន
Ḵ
ザ
亞
关
到
反
坡
座
征
散
莊
謙
꞉
씨
ో
ກ
ℵ
ポ
云
列
峰
幸
庭
徳
快
格
氣
維
輔
近
革
개
요
Ə
ર
ಹ
ං
ေ
ᐊ
乾
個
射
強
指
机
柔
油
淮
湯
獻
站
素
鉄
際
難
է
ܘ
ీ
ශ
ု
ራ
ご
僕
型
始
封
振
敦
桃
歸
気
沖
涼
爱
肉
表
走
遊
骨
¤
ĵ
ɩ
చ
შ
ᓂ
ប
ひ
剛
宜
报
期
片
略
祥
納
蔵
藝
號
閣
그
내
ਪ
ῷ
ネ
哥
復
故
敏
楽
破
翼
非
명
최
င
တ
ሰ
✸
劇
嗣
宁
庄
潘
熙
當
辞
Ë
̆
̠
ܢ
ܬ
উ
ର
జ
ເ
ὅ
ぼ
則
因
央
妃
曾
甘
甫
画
番
發
眼
系
苑
재
ɯ
Մ
ੇ
ត
參
团
娘
寿
服
车
魂
과
운
Ã
Ù
ΐ
ܡ
ެ
খ
ਵ
ಶ
െ
ὲ
へ
ょ
候
崎
澤
예
치
ɗ
ɹ
Ө
ލ
ശ
ො
็
መ
ḑ
ど
传
備
剣
勇
双
端
群
翔
耀
航
阪
靜
만
Ь
Ս
ያ
ድ
₣
ℕ
与
丞
倫
吴
存
楼
環
突
至
陶
모
🇧
兆
冀
姜
未
柴
樊
申
簡
臧
處
虞
蛇
蜀
话
輝
니

Ό
ֿ
ކ
ছ
ማ
ደ
₨
ゴ
ソ
ピ
为
余
兩
切
哲
圓
慈
施
湘
犬
監
組
蓋
蔣
衡
視
観
覺
詞
関
🇷
Й
ފ
झ
ਜ
റ
በ
ᐦ
‖
乃
乞
件
吾
均
幽
役
戲
歲
沢
沮
畫
豐
錄
阮
鶴
광
등
면
법
용
ڑ
ހ
ె
ಟ
ດ
ზ
ባ
ἑ
₪
℘
⊃
伽
円
奥
岩
滿
牌
秘
経
計
辛
ȧ
ѹ
ণ
ೇ
ヨ
介
仔
刊
岛
徽
改
桑
桥
殺
聯
領
석
Ɂ
Щ
Қ
ծ
״
ढ
අ
ិ
ἶ
ず
尔
己
徒
怛
戴
潮
遺
队
防
금
희
ੋ
ℳ
⅝
义
對
廷
杠
欽
汝
獎
異
耳
邵
駄
창
ซ
ຫ
ና
ុ
₃
ₐ
ヒ
ホ
位
住
坂
底
彦
扶
於
案
汉
点
營
牧
純
而
過
邪
권
청
ϵ
ռ
က
ង
ẫ
Ῥ
⁰
仏
巫
感
斛
无
泥
游
結
綱
菊
霍
병
ܕ
এ
န
ረ
ኣ
Ὀ
‛
₦
ⵏ
受
声
术
淵
澳
狗
竇
紙
索
罗
邦
錦
雀
飞
식
타
ǚ
ూ
ለ
ነ
ẖ
Ἱ
⊢
ⵔ
儒
句
団
塘
奈
巨
播
浪
照
礼
策
翁
舍
鏡
零
飯
餘
통
환
ؤ
ً
ߊ
ਉ
ੂ
ੈ
ላ
እ
ὺ
ギ
ペ
亚
厂
又
发
失
弁
歷
牙
現
粉
胤
調
資
赫
送
鄴
陣
馱
거
두
복
불
역
위
ʂ
Կ
ੜ
્
ോ
ພ
ფ
ተ
ᐃ
ἁ
ῳ
⅞
偉
兴
及
実
微
應
戀
持
旗
末
澄
県
祿
莽
赵
輪
霸
顏
물
ң
խ
ژ
ି
ရ
‟
₽
ね
ゆ
ゲ
俱
升
問
孙
宛
專
尋
屈
息
旅
朴
渡
遼
郁
露
韻
간
실
임
ɖ
̤
Ђ
ވ
ঁ
ൂ
ළ
ฟ
ึ
ົ
ပ
ိ
ძ
⁺
∫
≪
◌
む
勳
姫
就
帥
庫
曩
横
淳
狼
笑
舒
虔
记
鈴
頑
건
님
육
Є
ը
औ
ಅ
ങ
ණ
່
ᑦ
冠
味
妙
杉
楷
狄
私
級
致
譚
郑
醫
采
閻
鼓
배
Ť
Ե
ێ
ঙ
ી
ପ
ወ
ἅ
ἕ
▶
ⵜ
党
哩
器
展
岐
廉
弟
斌
柏
條
渾
潤
猛
製
財
逸
釋
雜
離
須
를
윤
음
포
ީ
ନ
బ
ฤ
ຣ
წ
ល
ី
ṳ
Ἡ
ⵉ
々
卓
屯
庾
弼
料
板
止
求
漫
續
考
苏
談
遵
鑑
類
馆
생
악
행
ײ
ގ
ો
ཁ
ᑲ
≫
ⵎ
便
傑
兰
取
只
唎
寨
并
开
弦
彌
彩
忍
柱
浩
終
絵
総
繼
肅
融
血
辰
黨
ꜥ
북
새
차
ɸ
Ϲ
џ
ӧ
ސ
ೀ
ඩ
ຍ
ც
ព
偏
圣
实
懿
掌
曼
構
艦
豊
豪
豹
質
醯
願
顧
麟
황
🇸
🇺
Ә
ঘ
ત
ಚ
ບ
လ
ყ
Ἁ
₴
≃
ォ
例
係
創
午
哀
姐
寇
幹
必
恆
恋
折
敎
树
檀
皮
編
翟
股
苗
讓
賽
遲
錫
雞
震
静
麼
래
령
송
순
홍
ϑ
Ё
ׂ
ফ
ਖ
భ
ಣ
ഹ
ທ
የ
ぬ
ほ
乘
慎
时
昇
棍
浜
狐
藍
貝
邊
量
鐘
靖
鱼
류
릉
속
트
파
혜
Ĥ
Ъ
׳
ޮ
१
ట
അ
ෝ
ཀ
ታ
ግ
យ
Ẹ
◆
儼
充
兼
勤
匡
医
咸
夕
姓
岸
当
怪
戒
斎
枝
栗
槍
毅
淑
祝
禪
筆
算
级
芸
褚
譜
遇
附
頓
髮
鴻
노
으
토
평
향
Ă
־
ஸ
ೋ
ഗ
ክ
ገ
ⲁ
ぐ
び
ぶ
俗
具
凌
域
堅
壇
奚
完
忘
斤
旦
湛
猫
禿
綜
肥
莉
規
賦
隴
韶
麥
點
덕
봉
울
𐌢
Ĉ
Ŭ
ǰ
Գ
ڈ
ܒ
ਆ
ਣ
ક
ୁ
ஜ
హ
ಜ
ὖ
⁴
⇔
ⲓ
げ
ざ
べ
ヴ
个
仄
佑
单
卷
契
妹
広
廟
廬
弓
曇
爵
甄
着
耿
般
艺
萧
軌
輿
达
閭
霊
？
ɜ
ѕ
Ү
ҳ
Բ
ۆ
ओ
મ
ై
ഷ
ཆ
ྒ
သ
ᑕ
ᓇ
ᖅ
ὔ
Ὑ
ℛ
ゐ
俠
儿
兄
动
卜
媽
寄
屠
戶
暗
更
朋
熱
矢
联
苦
运
鲁
ꞑ
감
려
반
𐬌
ɘ
ќ
२
ਭ
ధ
ർ
ཡ
ぎ
ユ
㎡
乱
什
優
兗
図
売
寒
庸
引
歡
沛
消
獅
種
竜
笛
脩
荒
著
虹
衍
譯
림
말
버
승
터
훈
ɟ
ɦ
Ы
ғ
ન
ે
ೂ
ൻ
ජ
ໄ
ᒃ
ῃ
俞
副
坐
序
总
悲
朔
璋
発
禁
練
肇
變
迷
降
餅
養
녀
술
피
형
𐭥
Ŝ
Ź
Ǝ
ǽ
˥
Վ
ބ
ླ
ြ
ទ
ំ
ⵓ
丰
们
伐
冬
务
员
嚧
壁
妖
嵩
梨
混
滑
璧
瓜
磨
符
給
縄
舉
説
贊
贵
載
録
际
霞
韩
게
들
람
본
ƿ
ǜ
ɤ
չ
ۇ
ऋ
ৃ
ਂ
କ
ବ
එ
ီ
ዮ
ᛁ
គ
ḿ
ἵ
∉
ⵍ
允
冰
剧
勃
審
帶
庵
抱
探
昆
晏
晴
梦
欧
汾
温
湾
準
灵
炎
琳
疆
皆
碑
禅
緒
織
署
薄
謹
论
賓
迪
週
頼
騰
鳴
Ï
ǭ
ʤ
ӣ
ܠ
ਅ
ஹ
ಭ
ೊ
ജ
ഭ
ෂ
ฮ
฿
ᐅ
ᐱ
ỷ
◄
◦
【
】
亦
像
冷
凰
厚
告
图
垣
塞
宙
導
岑
岭
庆
怡
急
悅
栄
欣
汪
漳
潁
濕
牟
碧
篇
罰
翰
背
講
貢
述
遷
龜
밥
업
철
𐤌
̇
̊
һ
Շ
ތ
०
੍
વ
ஐ
ྫ
ሕ
ሪ
ከ
ዳ
ᒥ
ច
ជ
ἠ
⁵
凤
含
唯
墨
奕
宫
惟
投
數
暉
榜
橫
歐
汽
沒
注
浮
産
盤
短
粵
糖
絲
纪
舟
誌
辭
追
龐
길
립
외
죽
초
풍
̧
ށ
ޅ
ં
ସ
అ
ఖ
ణ
ฉ
ີ
პ
ፍ
េ
ṫ
Ấ
₯
①
☠
♀
♂
ゅ
ヶ
判
圭
属
已
幼
斜
曜
架
様
橘
此
満
瀬
珪
產
網
羯
翻
荣
衆
證
说
遂
闘
间
鞭
鸞
각
년
범
열
집
흥
ɽ
ٍ
ତ
ღ
ሳ
វ
Ẩ
ᾱ
※
专
亡
仇
刑
勒
吐
喬
娜
婦
宅
対
强
待
怀
招
撃
敖
整
敷
曉
杭
毘
洗
済
病
祁
禹
秉
紇
細
聚
萍
藩
試
識
许
邢
郷
銅
隱
駒
드
디
떡
목
별
손
심
채
춘
카
𐤍
𐭩

ʈ
ϝ
Џ
փ
ੱ
ஒ
ಷ
ഴ
ූ
ຂ
ຊ
ຽ
ཚ
ჯ
ዓ
ᑐ
₡
②
份
伍
依
别
勿
卫
嚕
培
堯
处
奔
妻
媛
巻
弥
循
拜
捨
操
暴
朵
染
柯
桐
棒
植
毓
決
济
滅
独
瑤
皤
看
网
翠
芬
莎
衞
覽
読
費
跋
跳
轉
辯
逆
鼎
검
궁
날
설
애
와
있
적
찬
체

Ą
̕
̚
͘
ջ
և
ڵ
ॐ
પ
ମ
ష
ฑ
ຳ
ິ
ᐢ
អ
ゥ
丈
叶
哆
坪
執
塚
変
奮
寂
巢
幕
廖
悪
抄
掛
敵
映
气
潭
炮
炳
焼
熟
燒
牢
猿
琦
琵
琶
畢
眾
砲
示
綿
线
蒼
藥
诗
賴
远
邽
독
매
ﺍ
ǘ
Ǧ
Ǫ
ɵ
Җ
ҷ
Ն
ٰ
ڬ
ܩ
ޑ
ऐ
સ
ુ
ଗ
ొ
ഞ
ൽ
ฺ
๊
ຕ
ዝ
ᐠ
ᐣ
ᐧ
ᒋ
⁊
∝
◊
ⴻ
丑
乳
予
假
儉
写
勁
各
吒
圍
屬
差
幻
弗
忽
恨
惡
拏
救
杰
每
泗
爆
祐
積
统
聽
补
裡
覚
設
貫
辉
辣
这
进
遙
邱
郢
鉢
階
飲
駱
默
Ʞ
급
번
케
항
협
𐬭
Û
Ŋ
ʏ
ʑ
ˆ
˜
̑
ѓ
ӱ
ֱ
ֻ
ܚ
ܫ
ܰ
ߌ
ঠ
ਡ
લ
િ
ኢ
ἥ
ἷ
∎
ⲙ
ⵣ
丽
争
俟
冉
墓
壹
宰
寛
尺
巖
彝
彰
戎
攝
攻
歩
汴
涪
淨
狂
碩
絕
腐
蠻
誕
退
銘
麵
鼠
글
너
누
돌
레
록
루
후
𐭠
𑀺
̅
Ϝ
Љ
ѡ
ҥ
Պ
ڕ
ঞ
େ
ஏ
ஷ
ච
ฒ
ฝ
္
ቅ
ዋ
ው
ᓯ
ោ
ẞ
└
丕
偃
刻
卑
占
卢
叡
召
吏
吕
吹
埠
壯
娥
对
幾
怒
怕
憶
推
旧
梓
権
浙
满
漆
焦
燈
琛
瓊
磐
穎
競
竺
簿
綠
緣
脚
舊
蕩
蝶
观
詳
賞
边
邳
韜
響
顺
饭
鷹
齋
숙
저
추
충
판
허
🥇
Ŧ
Ɔ
Ư
ʱ
ґ
Һ
ৈ
ଦ
ධ
ฅ
ແ
ྐ
စ
ျ
ኤ
ካ
ដ
ហ
់
ῇ
‧
₵
⌘
〈
〉
☰
ⲛ
ヌ
厳
变
啟
坑
坦
堤
堪
境
夔
奖
孩
寬
専
恒
扇
撫
斷
沟
浅
甜
眞
碰
稲
筒
舜
菱
萊
蛋
裁
諾
買
贤
軒
逢
還
邕
醉
钢
钱
項
饼
鵬
네
르
월
절
총
효
𐌡
𐭲
ʎ
ˠ
ұ
օ
ٱ
ਚ
ൊ
ආ
ཕ
ྡ
့
ቲ
ዲ
ጋ
ᑯ
ខ
ះ
ḃ
Ἅ
Ἴ
ὤ
᾽
ℚ
ⲣ
ⴳ
两
串
临
亜
仕
仮
傷
児
兮
冒
农
凡
协
卞
卡
厦
叉
坤
堡
壺
妈
尤
席
恵
抗
揮
斬
晋
曰
权
杏
杯
枪
械
泳
潞
灯
爭
猪
玫
玲
琬
瓶
疑
皎
皖
盈
矩
砂
箕
茉
菲
虛
蜜
蝦
裏
討
资
跡
輸
鄂
闇
陆
陝
靳
頂
駆
鬥
鮑
齡
곡
눈
늘
암
옥
좌
코
티
품
함
합
ﬂ
𐤁
𐤋
𐭭
ɳ
ʸ
̞
̶
ϛ
Ћ
Ѳ
ѵ
Ң
Ժ
ܗ
ߞ
ਇ
਼
જ
ଡ
ಧ
ฐ
ູ
ွ
ჩ
ᑭ
ᓄ
ᛋ
ẁ
ẕ
ὠ
ὡ
△
♪
づ
亨
佩
冑
参
叱
墀
奎
套
她
寅
峻
彼
悟
戈
护
排
旺
晃
札
梵
模
淸
濮
炒
猴
瓦
禧
禾
稽
稿
箱
篆
縁
艷
荆
荷
藻
蘿
虫
謀
謨
遮
陂
隨
雕
霧
鹽
ꝏ
근
란
막
발
약
ﬀ
𐎠

̰
Ў
ѳ
Ғ
ӏ
Խ
ܓ
ূ
ః
ಇ
ಥ
ബ
භ
ຄ
ປ
ྗ
ሃ
ዕ
Ꭹ
ᒪ
ᓐ
Ḏ
ṙ
Ὁ
ⅱ
⊊
⌊
├
☵
☷
ゑ
ゼ
ㄹ
产
付
似
們
倒
僑
危
喝
宾
寸
崖
巡
庁
彪
恐
托
挺
摸
毒
泽
煥
獣
祺
移
笠
答
肖
胜
舌
荀
营
萨
薇
虜
装
訖
譙
賜
跛
返
鄺
酸
釜
鉅
鐸
隸
餐
驃
驍
룡
망
살
알
편
ﻠ
Ĝ
Ÿ
ȯ
ɴ
˧
Ί
Լ
Տ
ճ
ܣ
ܥ
ܳ
ޭ
ঢ
ય
ଜ
ଟ
ໍ
ሀ
ሎ
ሐ
ቀ
ዘ
Ἔ
Ἕ
⋯
☲
両
乌
侃
倍
凱
匹
啰
埔
婁
媒
屏
嶼
帖
庙
往
徹
恢
昧
晚
材
槐
淡
滎
獄
琮
瑩
疏
禄
稚
綏
繁
罪
置
羌
耕
蓉
视
豉
負
賊
配
錯
银
阜
阴
隠
題
駿
麦
규
까
녕
데
례
름
묘
십
준
직
헌
️
𐬎
𐬥
Ģ
Į
Ƶ
ȇ
ˇ
ͤ
ϋ
ϒ
Ӏ
Ӱ
ձ
ڪ
ߣ
બ
ധ
ཟ
ྷ
ခ
ሓ
ᐋ
ᑎ
ᕐ
ណ
ែ
៉
ḋ
ẏ
ἦ
Ὠ
〇
丙
並
倪
勾
吧
堀
宵
岁
嵐
彬
戊
抜
捷
撒
擊
晓
標
欲
沼
涯
滨
漁
爪
爽
玩
环
珊
瑰
盆
窑
维
羨
職
膺
艾
节
苟
茅
被
褒
赛
輯
选
邓
郝
釈
问
顗
飄
鸡
麴
齐
골
난
농
달
러
분
슬
족
처
칠
팔
프
𐎡
𐎼
𝄇
𝒫
¸
Ė
Ĭ
ɢ
˩
͜
͠
Ѓ
ѫ
Ґ
ժ
۔
ܟ
ऊ
४
ਟ
ગ
ୋ
ຈ
ཞ
ူ
ህ
ሥ
ጊ
ጎ
ጥ
ፈ
ូ
Ḣ
ἢ
Ὄ
῾
⁷
ℍ
Ⅴ
↗
⊔
❧
㖿
且
乂
亂
仰
伟
供
億
免
冶
刃
即
吃
唵
埵
堆
增
奶
嫁
嬰
害
寫
幣
弾
彈
従
恪
戏
或
拍
拾
敢
数
断
昏
昱
桜
沉
滝
潛
濃
炭
狀
率
睦
碗
祚
稜
糕
継
纂
罕
蔚
蕃
襲
訊
詠
詹
誰
谢
豚
踊
连
這
銃
锦
閔
闍
闻
靑
락
련
맥
왜
읍
첩
축
할
𐊠
𐤏
𐭫
𝄆
Ň
Ƨ
ƶ
ǥ
ǯ
˝
җ
ֽ
ٌ
ې
ঝ
ਈ
ੌ
ฆ
ฎ
ཐ
ཛ
ည
ံ
ሲ
ሽ
፡
ᐟ
ᐸ
ធ
Ḧ
Ụ
Ἠ
⁶
℉
∓
⊤
⌂
┘
☱
☳
✓
ⲉ
ⵙ
ゾ
ㅇ
企
但
兜
厥
啓
喇
坝
复
崩
巧
巳
帆
床
廊
很
愁
愚
戯
把
掖
控
揭
旋
旭
暢
杂
查
榆
涇
灘
爲
爺
玛
瑪
瑱
盡
眉
睿
瞿
碼
称
笙
籠
约
羲
耆
芦
薊
薬
蘊
衝
袋
詔
誐
諫
讀
计
设
貨
辽
迎
遍
邁
郗
郵
鍋
鑒
钟
閩
闕
険
隗
頤
顔
饒
龔
촌
크
탄
특
𒀭
Ĕ
ĸ
ƞ
ǖ
ǟ
ʧ
ˑ
˨
̵
ϖ
Њ
Ҥ
Ҷ
Ӧ
ٽ
ۋ
ऽ
३
ਧ
દ
હ
ଣ
ଳ
ஈ
ఉ
๋
ຼ
ဆ
ሞ
ቡ
ፋ
Ꭰ
ᐯ
ᒧ
ᚢ
ᛏ
Ṯ
ṷ
ὼ
‿
₫
ℏ
℞
ℰ
∏
⊇
④
▲
☴
♮
❤
ⲟ
ⴽ
ぢ
ㅂ
乎
亀
伎
伴
佉
佬
借
冐
刚
割
匠
卍
単
塗
壬
岗
嶽
帯
弋
忌
扬
挑
捕
揆
旻
枳
枹
柿
梧
椒
樞
歳
残
毗
汁
泡
浄
浚
涉
溝
滋
潔
瀛
狮
琰
璜
祀
穂
穰
穴
籍
粲
粿
紋
緯
组
绝
翊
腹
臥
芒
茹
蓄
訪
評
詰
词
诚
豬
财
贺
転
輩
鋼
鎭
隷
霖
頒
顶
것
굴
담
량
머
메
벌
웅
익
택
𐤉
𐬙
𑣉

ŧ
Ɣ
ǩ
ʐ
Ѕ
Ѣ
ӈ
ӯ
Ո
ߋ
ߘ
৳
ડ
ણ
ଲ
ಉ
ആ
ඇ
ฯ
ື
༽
ཏ
ྟ
ထ
ဲ
ሚ
ሴ
ᐁ
ᐎ
ᔅ
ᖃ
ḩ
ṡ
ᾰ
ῑ
ῡ
₄
℟
Ⅰ
∕
⊦
⌋
⍳
③
│
┌
┐
☮
☶
♡
ⴷ
ヰ
互
享
亶
低
俺
倚
儞
冯
则
剌
劃
厝
呉
圈
址
塩
娛
婉
婚
寔
导
尖
峡
峨
崑
嶋
廢
廳
彙
悔
惑
愉
拂
收
昔
昶
晶
曆
杖
杲
标
歴
毫
汲
沫
涿
溥
滸
潼
烟
煌
琅
琚
瑟
瑾
璽
盲
祇
禍
禎
种
窓
笔
筑
箏
粤
紳
続
緑
结
腔
腿
芋
荘
药
荼
葵
蓬
蘆
虚
認
請
諦
踏
鈞
鋒
駕
驚
鼻
갈
결
느
며
몽
변
온
점
탕
투
표
혼
ﻴ
𐑉
𐤊
𐬨
👁
¦
Ơ
Ƿ
ɭ
̦
Ҫ
Դ
Ռ
١
ݢ
ߏ
ৎ
ଶ
ౌ
ಆ
ഒ
ൃ
ൾ
ඳ
ෑ
ຸ
༼
ཨ
ါ
ჭ
ሊ
ቃ
ቆ
ጵ
Ꮝ
ᚱ
ᛚ
ᵉ
ỡ
ỵ
ἤ
₀
₺
℅
❋
ⲏ
ぁ
ぜ
ゎ
么
些
仪
伸
佟
侠
働
养
决
准
凝
剑
办
勛
卒
启
吸
咖
唔
営
嗎
圆
奘
娃
崙
应
悼
惜
懌
扁
捶
攞
极
框
棠
汤
沪
泊
涌
渙
渤
測
激
灰
炉
热
煙
爷
状
献
现
琨
瑜
璝
监
盘
眠
眷
磁
祠
票
稱
稷
穿
窟
粟
繇
绍
绿
聰
腳
膝
膳
舎
芙
苾
茲
萌
蛮
蜂
袖
规
誼
諭
讃
调
谱
賣
辟
迴
锡
閉
雁
雒
頌
顕
题
験
鴨
麒
꧀
놀
밀
브
빈
워
입
혁
ﺎ
ﻤ
ﻮ
𐊰
𐏁
𐩣
𐭕
𐭧
𑀲
𑣂

Ě
Ĵ
Ń
Ɓ
Ǎ
Ǵ
Ȝ
˙
̡
ѝ
ѿ
ҫ
Ҹ
ҹ
ӑ
ӗ
ӷ
Յ
װ
٢
ښ
ܦ
ߎ
߫
ॉ
ધ
ળ
ஃ
ಎ
ฃ
ํ
ཤ
အ
ሙ
ሮ
ጣ
Ꮒ
ᐗ
ᓴ
ᴇ
Ḩ
Ḱ
ṗ
⁝
₧
Ⅱ
⇌
≐
⋀
⌈
☉
ⵖ
ⵛ
ⵡ
ぱ
ヲ
ㅣ
㎢
丝
亥
仓
众
偕
偶
勉
匯
卖
卦
历
呬
咒
囍
围
圳
塵
奏
奭
姻
孚
寵
岱
峯
巍
幡
库
廠
弱
徙
応
恕
户
披
拗
括
捺
接
暮
杆
棟
椎
楞
楠
殘
氷
没
添
渚
滄
濱
瀚
炸
煎
煩
瓌
疾
皓
盖
祈
禺
竟
筠
築
篤
綸
綺
緝
縛
纸
缘
脂
臘
舰
莲
菅
菻
蓝
覆
詮
誓
謐
评
请
贝
贱
趾
軟
辦
辺
迅
郿
鄰
醬
鎌
鎖
隋
霜
鬱
龕
Ꞌ
ꠣ
력
앙
응
잠
참
험
흑
︎
ﻟ
𐊫
𐤔
𐬆
𐬵
𐭓
𐭱
𑀢
Ę
Ŏ
Ʒ
ȃ
ȅ
ʙ
ˣ
͗
Ύ
Ϙ
ϣ
Ќ
ѐ
Թ
Ի
ګ
ۃ
ޯ
ߛ
ߟ
५
અ
ୀ
ஊ
ஓ
ఆ
ഉ
എ
໌
ྣ
ቦ
ኖ
ኮ
<unk>
